[PAD]
[UNK]
[CLS]
[SEP]
[MASK]






!
"
#
$
%
&
'
(
)
*
+
,
-
.
/
0
1
2
3
4
5
6
7
8
9
:
;
<
=
>
?
@
A
B
C
D
E
F
G
H
I
J
K
L
M
N
O
P
Q
R
S
T
U
V
W
X
Y
Z
[
\
]
^
_
`
a
b
c
d
e
f
g
h
i
j
k
l
m
n
o
p
q
r
s
t
u
v
w
x
y
z
{
|
}
~





























¡
¢
£
¤
¥
¦
§
¨
©
ª
«
¬
­
®
¯
°
±
²
³
´
µ
¶
·
¸
¹
º
»
¼
½
¾
¿
À
Á
Â
Ã
Ä
Å
Æ
Ç
È
É
Ê
Ë
Ì
Í
Î
Ï
Ð
Ñ
Ò
Ó
Ô
Õ
Ö
×
Ø
Ù
Ú
Û
Ü
Ý
Þ
ß
à
á
â
ã
ä
å
æ
ç
è
é
ê
ë
ì
í
î
ï
ð
ñ
ò
ó
ô
õ
ö
÷
ø
ù
ú
û
ü
ý
þ
ÿ
ą
ć
Ď
ę
ł
ń
ś
š
ţ
ų
ź
ż
Ǆ
ǅ
ǆ
ǧ
ɵ
Σ
Ω
ε
π
А
Б
В
Г
Д
Е
З
И
Й
К
Л
М
Н
О
П
Р
С
Т
У
Ф
Ц
Ч
а
б
в
г
д
е
ж
з
и
й
к
л
м
н
о
п
р
с
т
у
ф
х
ц
ч
ш
щ
ъ
ы
ь
э
ю
я
ё
і
א
ܢ
ވ
࡞
श
༈
ང
ཌ
‏
–
—
‘
’
“
”
•
…
⁻
₁
₂
€
№
™
←
↑
→
↓
∀
∃
∅
∆
−
∕
∘
√
∥
∧
∩
∪
∮
∯
∰
∶
⏚
─
│
┌
└
▁
▂
▄
▆
█
▲
▼
☀
★
♎
♫
⚑
⚠
⚫
✓
✔
✕
✘
❤
⬤
、
。
「
」
あ
い
う
え
か
が
き
く
け
こ
し
そ
た
だ
ち
っ
つ
て
で
と
な
に
ね
の
は
へ
ま
み
め
も
よ
ら
り
る
れ
を
ん
ツ
ル
一
上
下
不
与
世
丝
两
个
中
串
为
主
义
之
二
亮
亲
人
从
令
件
份
优
会
位
体
作
你
修
值
健
偶
像
僕
元
兄
兆
先
入
具
典
内
冷
凌
出
函
刀
分
列
创
初
删
到
制
刷
前
加
动
助
匂
包
化
匹
区
卡
印
卷
历
压
原
参
叉
及
双
发
取
变
只
号
合
名
后
君
否
吧
含
呆
员
命
啊
回
国
在
均
型
声
备
夏
外
夢
失
头
奇
好
始
威
子
字
存
孤
安
完
官
定
密
对
将
尋
尚
尝
层
屋
展
工
左
已
师
幕
平
年
并
広
序
应
度
建
开
式
弟
強
录
彩
径
待
必
您
憧
成
或
手
执
扩
找
投
择
持
挂
损
据
排
接
推
插
握
操
支
改
效
数
敷
文
新
方
无
日
时
明
星
是
暂
有
期
未
本
李
来
板
构
查
标
树
校
根
格
桜
检
棵
正
此
毎
每
毕
气
気
水
求
没
法
流
测
浜
深
混
清
源
溶
点
無
然
熱
片
独
率
王
现
生
界
白
的
目
知
码
砂
确
示
票
离
秀
私
秒
移
程
空
立
笑
符
第
箱
类
線
组
经
结
绩
缩
翻
者
能
脚
致
良
色
获
薄
螺
行
衡
表
袋
装
要
見
视
解
話
語
访
识
词
译
试
该
误
请
读
败
越
跡
路
跳
踏
转
载
输
辨
込
达
过
返
还
这
进
连
退
选
通
造
遍
配
量
错
镜
长
问
闰
限
除
隐
需
静
非
面
音
顔
须
频
验
高
鼠
鿿
ꬹ
가
그
기
꿈
나
너
넣
는
다
당
도
된
등
램
력
로
록
료
루
명
목
번
블
비
서
석
수
아
약
어
없
에
예
완
원
은
을
음
의
이
입
있
자
잘
적
좌
지
진
찾
출
테
프
하
할
해
행

！
，
：
；
？
�
𐀀
𐄣
𐿿
𝐀
🌻
🐌
👊
👿
💐
🔪
🔴
🔵
🚙
🟡
🟢
🟣
##V
##P
##L
##C
##T
##3
##1
##H
##o
##t
##k
##e
##y
##E
##S
##r
##i
##n
##g
##a
##b
##l
##j
##u
##m
##p
##s
##c
##h
##Q
##O
##8
##5
##I
##D
##f
##x
##A
##N
##w
##W
##M
##d
##R
##Y
##F
##2
##6
##Z
##U
##0
##G
##v
##9
##4
##q
##B
##K
##X
##z
##7
##J
##Ã
##ã
##é
##Ê
##文
##件
##á
##ö
##建
##音
##频
##压
##缩
##脚
##本
##失
##败
##ò
##¤
##µ
##Ä
##一
##回
##值
##类
##型
##不
##正
##确
##Æ
##¼
##▁
##ý
##아
##서
##£
##ç
##ø
##è
##É
##Ï
##
##份
##完
##毕
##树
##插
##到
##中
##数
##无
##参
##ª
##À
##ó
##¹
##
##Â
##Ð
##à
##Í
##е
##н
##т
##い
##屋
##敷
##に
##二
##人
##き
##り
##输
##入
##的
##双
##亲
##结
##点
##Ó
##Ü
##½
##Á
##р
##г
##у
##м
##并
##转
##码
##о
##д
##ъ
##¾
##³
##Ò
##配
##符
##测
##试
##в
##и
##í
##Ч
##þ
##Î
##も
##君
##を
##待
##っ
##て
##た
##よ
##º
##л
##ы
##Å
##×
##´
##界
##憧
##れ
##Þ
##从
##螺
##丝
##刀
##з
##ж
##ё
##推
##
##
##а
##А
##识
##å
##ð
##在
##备
##误
##Ì
##È
##б
##­
##Ç
##工
##具
##路
##径
##读
##取
##ę
##ą
##Г
##Ö
##
##
##
##ü
##æ
##ô
##Ý
##ê
##Õ
##û
##Ô
##î
##函
##表
##示
##尚
##未
##投
##票
##ë
##š
##ル
##Ø
##空
##否
##好
##你
##つ
##к
##ź
##ń
##¥
##镜
##像
##õ
##¦
##列
##ú
##ཌ
##ì
##ï
##ñ
##Ñ
##я
##ん
##な
##気
##持
##ち
##は
##声
##明
##Ù
##修
##改
##²
##者
##必
##须
##均
##为
##或
##
##
##
##除
##高
##亮
##度
##â
##ù
##
##
##Р
##校
##验
##出
##错
##时
##く
##ß
##ь
##能
##构
##体
##初
##始
##化
##Ë
##
##
##面
##板
##有
##ね
##の
##白
##日
##期
##对
##应
##星
##名
##字
##
##
##𝐀
##密
##操
##作
##±
##с
##Ú
##Û
##格
##删
##连
##接
##叉
##平
##衡
##й
##匹
##挂
##载
##会
##来
##행
##기
##执
##行
##命
##令
##箱
##需
##ä
##ų
##話
##ш
##석
##ц
##은
##¸
##х
##다
##
##
##握
##手
##が
##
##进
##加
##助
##原
##健
##个
##О
##Н
##支
##组
##定
##义
##访
##问
##越
##°
##据
##線
##检
##查
##视
##与
##幕
##主
##是
##致
##ら
##选
##择
##ţ
##п
##根
##遍
##历
##后
##闰
##年
##啊
##え
##
##로
##그
##램
##을
##过
##ꬹ
##目
##录
##秀
##ю
##内
##Ď
##ǧ
##ɵ
##ܢ
##ވ
##及
##序
##ч
##이
##블
##还
##损
##ф
##щ
##э
##师
##安
##装
##扩
##展
##卡
##上
##程
##世
##子
##法
##位
##卷
##Л
##√
##と
##夢
##너
##도
##루
##量
##包
##ま
##笑
##顔
##る
##造
##国
##翻
##译
##秒
##外
##生
##
##先
##静
##だ
##け
##找
##已
##经
##Б
##
##록
##된
##元
##へ
##ś
##典
##당
##하
##는
##Е
##어
##진
##含
##混
##流
##У
##С
##К
##И
##Д
##В
##Т
##Й
##З
##独
##み
##込
##匂
##号
##方
##式
##存
##员
##가
##制
##然
##見
##奇
##跡
##分
##辨
##率
##合
##立
##ż
##ł
##ć
##ÿ
##解
##兄
##弟
##发
##现
##之
##前
##清
##¬
##П
##排
##只
##吧
##袋
##鼠
##약
##자
##开
##浜
##あ
##し
##語
##¨
##片
##头
##
##할
##М
##熱
##达
##要
##左
##료
##¢
##威
##标
##深
##限
##広
##א
##彩
##薄
##적
##지
##か
##效
##水
##印
##력
##번
##兆
##め
##で
##𐿿
##鿿
##𐀀
##毎
##成
##绩
##区
##移
##动
##知
##第
##棵
##溶
##そ
##う
##і
##Ц
##没
##此
##음
re
st
##nt
##at
##ev
##er
##ct
if
str
ret
##re
##uct
struct
##se
dev
##st
##or
##ur
##ri
##on
##in
##le
in
##ic
##oc
int
stat
##urn
##et
return
##ar
##al
##de
##it
##id
##00
##ed
##an
co
##en
##ut
##ock
##ad
##ata
0x
ch
##ag
##si
un
##ff
##am
##rr
##ue
##ot
##ap
##ze
##ase
bu
si
##ac
ad
##es
err
static
##ode
pri
reg
data
vo
##fo
##dr
##te
##ER
##dev
size
void
##ro
de
##mp
##as
##ort
##nd
##32
##gn
##us
##ice
##ist
##tr
fl
con
##pe
##UL
##IN
##el
info
len
##gned
##ak
##lock
##ve
##signed
case
unsigned
el
##ing
##ab
##im
##ate
val
lock
priv
device
set
to
sk
##rq
##AT
else
##io
id
fi
##um
##rite
##em
sp
RE
bre
##ex
flag
break
##ame
##ULL
cl
di
##ch
irq
##ON
NULL
write
##md
##able
buf
flags
##set
res
##ci
cp
##up
out
get
##ul
##unt
for
op
##ion
at
read
##oto
IN
##ma
##fs
##AL
##OR
##nc
##ry
##ip
##ree
addr
us
goto
state
##ype
port
io
EN
init
##ll
ex
status
ST
##ai
##art
cmd
se
pr
req
##and
##ter
##ET
##ow
##ig
##age
##IT
MA
##of
##if
skb
hw
##ong
##DE
##AR
##ask
##EN
##th
##cp
list
tx
long
cpu
DE
##TR
mem
type
sc
ms
net
##RR
off
char
count
##ent
rc
is
##OM
buff
tim
ph
par
##16
sizeof
name
##ST
ct
cont
tr
##ult
chan
##ce
##bu
##sp
ma
##ol
print
rx
en
##AN
##ss
##ver
##ntry
##ost
##RE
u32
##ack
rt
ar
##ext
ERR
##LE
##ard
##AC
mode
snd
dma
error
sh
chip
spin
##IO
num
ne
bit
end
unlock
##ub
offset
##data
##ay
##ead
##sc
ip
##US
buffer
##dex
##FF
start
pci
##ach
##ERN
##map
inode
##ey
##end
phy
free
conf
const
lo
po
page
##un
SI
cur
##000
value
KERN
##val
base
file
##ect
##apter
te
add
node
##mm
REG
##11
dr
##SS
##ueue
##all
sy
##IC
##ODE
##esc
##AG
##int
le
##AD
max
##80
entry
##co
##ister
##PE
##64
##ID
##ine
##unc
pl
##UT
##EL
printk
##OC
##vent
pc
##pt
desc
##ZE
mut
host
mask
by
u8
index
STAT
##ee
##ge
map
usb
all
CON
sw
gp
##ED
mutex
new
pdev
arg
##UG
##fa
##ail
##OL
##VAL
event
##rc
regs
block
##port
##ile
##EM
##nel
head
pro
i2
tmp
##CT
func
0x0
th
sub
ac
msg
config
key
##ty
##IG
##AM
##MA
cf
##rent
##od
fr
##AB
ctx
##bj
wor
##uest
adapter
sl
hand
SIZE
param
##op
queue
##ient
##ace
##IF
##len
##put
up
sb
sd
code
card
##ec
client
time
##pri
bo
EIN
##led
user
##SK
clk
be
##lk
##0000
pi
##rol
##addr
bus
##trl
##is
EINVAL
PC
##size
##ld
dri
i2c
##ink
##gth
AD
##bug
ep
request
##itch
alloc
ptr
pm
db
enable
cs
##DR
##SC
##SE
##10
ro
ctrl
##reg
##sion
next
wh
##ep
debug
##ave
##xx
al
vi
switch
attr
inter
register
gpio
##ast
do
per
##rt
##ath
##OT
##orm
##ore
ops
##ING
of
idx
##info
##MD
##ess
##ailed
tran
table
put
channel
driver
MAX
mm
##rb
##our
##IM
comp
ra
##YPE
lp
##igh
DEB
hdr
TR
comm
##one
IS
seq
##om
conn
##get
length
##free
CH
##ait
PR
not
sm
##CE
IR
cfg
##lay
##SI
##fault
##UN
##PT
##lo
##out
##12
obj
##rom
##req
DEBUG
result
##802
as
AT
work
##FS
drv
default
##ash
MASK
##ress
uint
##ation
##ORT
16
dir
##PI
FL
while
##res
pa
INT
##form
##OW
dis
AC
ap
##In
##tes
##ain
wait
kfree
##cd
temp
src
ser
DI
##ind
TX
input
ah
tp
##ction
timer
handle
ring
##cs
##ache
cap
mt
##80211
on
##2x
##FP
plat
##mo
private
trans
min
u16
failed
SC
dbg
##buf
md
codec
TYPE
##ib
##ource
##40
no
ps
netdev
pos
nr
##ud
##mt
0xff
link
##fc
##ime
cle
loc
CMD
##AGE
ON
##pc
sock
WR
##SP
##ms
DB
##ower
0x00
sg
EX
cnt
frame
rate
##eck
endif
platform
10
opt
##alloc
wl
##DC
##line
##ENT
##ABLE
cre
spe
##ATA
##SET
stats
##ba
urb
CONF
ID
task
##ly
##be
##ial
##are
fe
send
IRQ
GFP
##ive
bp
bh
##TRL
##eg
##FO
US
hd
log
pre
ext
AL
RX
##MB
##OMEM
SH
##UE
fs
params
rec
pcm
##ntf
CL
exit
dst
MODE
##acket
##SR
current
ENOMEM
##cpy
##AP
STATUS
##roup
0x1
bits
##di
PCI
fb
##IL
path
##eee
##INT
##OCK
ieee
ver
##TL
DMA
check
##CR
##OP
mp
bytes
##os
mac
##ure
##25
SU
act
retval
control
##ass
mb
ib
reset
##atch
test
ioc
##ION
proc
slot
rtl
##AY
##PR
##und
##py
DEV
ctl
##43
cache
##kt
##store
##mem
##read
address
##SY
##ULT
##ca
CONFIG
fw
##St
##ART
vm
INFO
last
upd
np
##UM
##AS
##20
##ITE
##fer
##lease
var
sa
##arget
##rypt
mod
##FA
old
context
##def
fir
##EE
local
##PC
PAGE
ERROR
ts
##50
mi
enc
root
del
ab
##ight
DATA
SET
fal
dd
##priv
##bl
writel
dest
rdev
DBG
release
##ity
mc
u64
irqre
disable
##ATE
from
MS
call
nv
cb
##mi
header
##ctl
update
sup
av
timeout
##TH
##24
##HY
GP
##ntrol
fail
raw
pp
false
##il
fc
KERNEL
##own
##evel
AR
##ule
cc
acp
memcpy
resource
##ages
done
##per
power
use
COM
##ES
##ream
BIT
scsi
##la
remo
parent
vol
clock
CTRL
spi
packet
##IP
##ok
##AND
READ
att
IP
tty
create
group
WRITE
acpi
##ds
copy
setup
true
##CH
##rup
##OD
##ux
ent
rs
##rupt
cm
byte
command
aud
freq
pd
##idth
blk
##li
dm
pdata
##no
##IV
UN
SE
TIM
##cc
##ACE
target
DR
##code
OFF
CR
##97
RT
contin
inline
##mit
##stream
atom
irqs
##pi
drm
##gr
##base
ha
sel
bt
cx
rq
##ake
remove
32
continue
ev
##rig
USB
irqrestore
sec
ifdef
im
drvdata
LO
##back
##90
v4
##ies
pkt
stop
##PP
##Info
stre
##use
##amp
##hci
INIT
gen
##name
ref
##ler
sync
##l2
BU
##Co
stream
##vm
sen
##FG
##ory
level
pw
STATE
##ush
open
##30
qp
##Ad
inst
##91
SY
fp
OUT
clear
soc
hash
##list
args
sys
##fb
##ASE
msm
##ster
connect
##ute
sn
##ber
SN
pt
le32
##control
substream
aut
##hy
PHY
##FAULT
##cpu
ins
##ord
atomic
##ARN
dw
##rd
fil
unreg
##ound
##ft
interrupt
line
dentry
pages
wm
##OS
dp
bool
pin
iw
fd
EV
v4l2
##ange
wr
WARN
div
##UR
xfs
phys
comple
##fi
bfa
uint32
##ment
unregister
##1000
##ICE
core
##rl
FLAG
bn
##IST
sch
##ync
ieee80211
##fl
irqsave
width
GPIO
pg
bio
find
##PL
dv
tm
FI
tc
PORT
pipe
dc
each
handler
memset
rb
##sor
##ACK
##DCOM
can
enum
class
ENDCOM
##MBOL
he
TAB
##ull
em
readl
##evice
form
crypt
12
##fn
ud
LIN
resp
BUG
omap
this
object
##rib
qu
##ely
tag
##AME
##IFT
##31
##60
##kely
nl
##IS
08
##fs2
##ator
printf
notif
PTR
first
##CM
LEN
##ONE
format
rep
##OUN
ite
rd
ses
ss
def
ADDR
##SYMBOL
##deo
##stat
TABSYMBOL
##iS
BL
SHIFT
vp
WM
region
MC
GET
FR
led
PL
ht
active
##ild
##printf
word
bc
##ctor
le16
##ert
##fe
##ose
audio
##ox
fmt
serial
os
##FC
##eld
FA
##GE
ENABLE
gr
ci
##CESS
version
MI
be32
##ump
ssize
##ERT
##bi
##89
sta
##iff
OP
ns
oc
##ODEV
jo
mo
IO
Co
virt
range
##face
##REG
ag
##EX
0x3
##ng
SD
##MT
scan
##og
ll
crt
hp
##71
##otal
tail
##ved
EXT
rf
thread
##untime
##ting
##OUT
eth
vcpu
NO
dl
LE
##usb
self
prev
session
pool
##ending
##num
ENODEV
ath
runtime
lim
In
PM
CP
probe
it
valid
##ERR
MD
##70
##edi
##db
##55
HW
##ries
jiff
##88
delay
item
cq
ARR
SiS
##ECT
MEM
btr
speed
##TROL
##END
nfs
mapp
ARRAY
and
##2x00
acc
TRACE
sym
attrib
##L2
cal
btrfs
video
seg
rp
sr
fh
ACPI
##leep
##EC
MSG
##valid
memory
##ize
0x0000
##ance
##her
##likely
##Device
unlikely
short
CFG
TO
lpfc
##fr
mtd
wake
jiffies
##2C
part
gsp
ic
##main
gspca
output
sig
ds
bf
CONTROL
fifo
prot
##ual
b43
##me
cam
PAR
phba
pix
##EY
##ffer
##CP
vc
rev
##po
##arn
HE
flush
##83
##unk
ed
uart
crtc
V4
pid
REQ
##XX
##obj
##URE
##load
##ags
##ps
SR
##ware
field
##ift
##off
##deon
radeon
master
##MC
##92
td
bl
##LAN
pending
##UP
##attr
wq
pM
hs
##800
OFFSET
ld
outb
rtc
MAC
clean
V4L2
SP
CTL
vma
option
##rintf
intr
rt2x00
disp
##65
NET
##IR
total
BASE
##onf
##count
an
CHAN
ass
CN
##mpty
##100
tv
EFAULT
kcontrol
fix
##NC
0x2
##86
##ank
DEVICE
enabled
warn
EIO
sensor
exp
tree
##to
number
02x
##13
dvb
sched
pad
20
##zalloc
##ers
##18
iomem
found
RESET
##GB
ele
##ctx
sign
##ume
empty
0xFF
##DRV
ml
##delay
kzalloc
tl
SL
mmc
SM
##queue
##15
hcd
##ated
##ctrl
##Data
cr
com
##node
tun
PER
det
##ir
bd
RD
arr
BT
##ded
interface
common
chunk
kvm
##print
TIME
dec
ec
nb
##MAP
tf
trace
encod
##CTL
board
##roy
vb
col
spec
##eq
##ptr
HEAD
tg
left
attribute
NV
IF
intel
filter
SUC
100
back
##ames
##USY
ocfs2
process
NUM
run
0x7
height
SUCCESS
over
0x4
RES
destroy
mapping
##its
subdev
ASS
show
##erm
dt
ali
crypto
adap
pll
sector
KEY
##printk
are
##bd
VAL
##rop
contain
##ACH
bnx
##rror
##hdr
hc
##OWER
##nic
##ORM
curr
##ffff
pe
IB
cdev
##tent
##ARD
EVENT
tbl
##enc
##roll
##CI
insn
ETH
dump
VER
feat
save
sprintf
RA
CAP
AU
iter
##rid
08x
shift
disc
AN
mar
##file
##cmp
has
match
##ices
##DM
##CL
##fp
va
##IGH
##point
##EEE
bat
CLK
met
frag
##essage
LOG
tcp
container
IEEE
##err
string
dire
##Bu
ul
eep
ls
##3c
##ence
##init
encoder
MOD
pol
netif
pte
##85
##atus
##ript
64
##log
NOT
I2C
er
##CD
ioaddr
complete
##PUT
##iod
##wn
PRE
low
IW
kobj
rsp
##87
11
##vc
##fx
1000
##Ch
load
24
tw
##idi
##state
CS
##ant
SNDRV
scb
module
cy
rcu
ide
mult
alg
disk
tt
##4x
##key
##EP
inc
proper
AUT
0x01
report
tb
ata
##Reg
##OST
super
dprintk
Ad
TH
##ition
##msg
##OWN
rad
transfer
poll
entries
##roller
Un
##Type
pDevice
ql
##bus
ACT
POWER
##93
extent
pn
ALL
dai
##acy
##ork
recv
PT
##xxx
##iv
ack
reply
change
##ORD
##ha
##82
##ridge
St
bb
bss
lu
rat
##IVE
nd
close
child
##56
vs
Set
##fd
##fg
##LED
##IB
OK
##ick
samp
hba
WARNING
EB
high
##pend
loop
support
##42
nes
##mask
DC
callback
##AIN
l2
##OUR
rem
pv
##INE
##unction
##ctp
##Len
##mware
connector
intf
MB
##lan
domain
##mode
cleanup
##ulator
UART
devpriv
##FL
SB
ioctl
##ill
mg
space
##csi
limit
sz
ind
ubi
dsp
af
sctp
bitmap
##resh
parse
##urnal
area
##ALL
dep
LIST
mv
##gacy
##ax
period
AB
eeprom
IX
##ie
journal
##OG
or
0xf
##ith
array
point
START
down
VI
hdev
##OUNT
##DB
mix
reser
##ront
udc
SS
Failed
##mmu
message
vport
WA
##link
##lob
##old
iov
da
gener
std
server
##lect
bi
CC
CPU
##23
uc
##ger
il
bridge
orig
isp
PS
ASSERT
bad
XFS
##ale
boot
EM
pan
ino
qla
iv
NL
tid
band
RF
br
RATE
##net
NONE
FW
ix
CT
IOC
NAME
MIN
BUF
arch
##OB
invalid
UP
me
notify
fin
options
##onfig
FC
pb
km
##Val
nf
##DEV
##WR
##ta
proto
##FI
pfn
dlm
##xt
##uld
ndev
ker
ax
channels
wri
##yx
look
##81
used
dirty
slave
##tra
sample
##ram
##ole
blocks
##ical
the
COMM
##cr
cons
##VEL
STR
##stem
ADD
access
EP
##desc
mr
FAIL
##AV
auth
##nal
PCM
function
DIS
##ier
radio
inb
PRINT
perf
BR
async
shost
##MP
property
DRM
rpc
##17
mon
##ote
15
##onn
rcv
##State
emu
transp
unmap
firmware
mbox
udelay
Pr
LINK
ac97
uint8
front
lcd
TE
##ring
source
##ACHE
##annel
ahd
##ORE
full
##block
##qu
BLOCK
##VER
##ref
smp
mmio
avail
##reen
##OURCE
##gin
fill
##pl
##dm
##ytes
##22
initial
nic
##IFO
fa
iobase
xfer
##ust
##bs
##aram
##ck
oper
hi
action
e1000
image
DM
##start
##write
SW
SPE
##Size
##ures
lookup
##Index
rm
mdev
mark
##work
##54
sus
##iz
##DA
IEEE80211
LP
##ocol
##au
sem
setting
sof
BY
##type
ATTR
##CC
fn
LINE
CSR
##ell
##onse
##ond
counter
devices
rw
BUFF
with
sysfs
##GA
prep
ir
opcode
px
ahc
kmalloc
lx
cd
BO
COMP
xp
##ency
comedi
stack
##alk
##hd
vid
allocate
##let
##indow
union
iommu
##35
complet
wd
##SION
GR
##yn
##red
LEVEL
##14
0x80
##vert
##nter
ATOM
chain
TRAN
##ify
vif
##ped
PI
##EXT
minor
rtlpriv
END
##ined
ord
##uple
socket
##x4
##Id
##LC
delta
ENO
eq
bm
xdr
s3c
extra
##AST
signal
##96
##ayload
regulator
tok
##SIZE
##ector
descript
##Status
SUPP
##ingle
ft
sas
##imer
ui
##ary
##ITY
lun
efx
bank
VM
##kb
AUD
flash
DAC
IXGB
##ffs
CB
##tt
retry
##95
0x10
ie
attach
hid
##CON
drive
IM
WLAN
udev
MT
B43
sbi
sdev
FUN
FE
eh
instance
##icy
drop
##mmand
##regs
own
events
FB
mx
BN
debugfs
msi
##TER
##nown
kernel
ctxt
man
es
dn
protocol
li
##ga
snprintf
CONN
DIR
abort
ca
nt
trig
s32
gain
##STAT
##ALSE
##lp
##pect
unit
##OF
##acon
PF
loff
##buffer
single
##CTION
##af
TRUE
crc
##ios
AV
##OUND
##sg
##ATH
##ntext
##400
FP
ipv
##300
rel
0x8
##RESS
##915
depth
LED
OMAP
idle
NE
cred
hal
RC
##ero
nid
SIG
##IGN
PARAM
##lobal
order
##mple
##arm
##ged
my
PA
##Req
soft
EBUSY
resume
AS
##api
rece
pwm
go
controller
Ch
DESC
response
detect
window
##ible
policy
##str
ni
pwr
integ
frontend
compat
pyx
##ASH
iwl
REC
features
##bit
##ULE
##not
assert
errors
sense
##NEL
transport
plci
##onnect
##Mode
##pec
##94
COUNT
mgr
env
zone
HOST
##bo
schedule
0xffff
store
##umm
flow
TA
bnx2x
##ery
##LAY
##sy
FALSE
##200
align
ipath
csr
##sed
AP
mach
0x000
##Count
##dd
gc
direction
top
ext4
cg
##ATION
RING
rt2x00dev
TIMER
##X2
##PROM
walk
filp
##action
post
inet
TIMEOUT
##sm
payload
tfm
##ces
##TE
BUFFER
pS
hard
DEFAULT
##APT
ATA
lv
DEF
descriptor
##cept
##PS
##51
##ew
##Num
elem
rv
##PORT
pf
CACHE
strcmp
kp
##DEON
remote
RADEON
INVAL
##unmap
defined
FRE
##legacy
acl
xmit
volt
CM
one
suspend
prop
IXGBE
endpoint
HAND
ov
##uc
##known
##77
##000000
ok
0x40
TC
##Fr
right
iscsi
dsi
wlc
tuner
##ix
##mac
S3
ports
MM
##est
##ops
supported
DISABLE
##arch
##sh
hci
SND
##IOC
cmnd
##DEX
adc
ai
vx
MODULE
qc
nla
##ug
##endor
##flags
notifier
lay
CHIP
PIN
pixel
##ht
##arg
PACK
term
PLL
sleep
network
##ble
HZ
pMac
##DN
msleep
##ifi
##atter
EE
xhci
dem
##ning
Error
##iphy
##nl
FIFO
##8001
##BL
##ources
INTR
vlan
##idx
force
##mc
##ision
LOCK
et
writeb
bar
imx
##62
04x
SER
iface
BUS
pio
0x20
##time
hdmi
mii
lc
##Addr
SCSI
mlx4
##MI
BITS
qib
saa
cook
caps
INVALID
ucontrol
SYS
timing
mixer
reco
sq
win
HAL
##ane
vector
evt
CHANNEL
bdev
FS
##DI
##uid
##LY
VOS
completion
##tv
##VB
##ere
vha
SUB
sdio
ti
busy
##pr
nil
peer
display
wc
##ERM
##Set
select
##ELD
decode
atm
try
##sec
PK
DA
musb
fcp
dig
fm
vdev
##sent
leaf
wiphy
query
##MS
mw
##dir
##uve
rport
##uster
gl
owner
TEST
ram
##gb
fam
##GR
##ali
##UEUE
##ECK
color
POL
##63
nilfs
##ared
##TYPE
spu
ATOMIC
token
beacon
rts
##SYNC
##uveau
nouveau
cach
errno
be16
##Tx
##SH
##Add
assoc
bios
sge
interval
##act
##TC
pmd
##TRY
nand
CLOCK
14
SPI
tri
cookie
real
##ily
CO
40
DIV
##Value
CODE
SK
RTC
cluster
MDP
integer
##cel
##cb
##34
Adapter
##edia
##eth
##600
ehci
SEL
bcs
hdl
txq
model
##02
STOP
FILE
insert
HIGH
SPEED
WAIT
ready
COMMAND
GEN
TS
##bol
##REG32
family
mount
vt
gfs2
##sel
FMT
cep
attrs
##FR
##NT
resources
mad
internal
##ire
mag
##ml
INPUT
dele
DP
panel
hel
E1000
##hs
ia
CNTL
vf
PROT
lin
ba
thresh
strlen
global
buffers
##box
AF
skip
##UX
SYNC
s5
##sr
ceph
wl12
INDEX
##sl
vcc
HD
TRIG
##USE
pointer
TRANS
need
##atile
SA
Re
##LA
via
pH
S3C
dword
##MODE
fcs
13
sf
##ang
row
mux
##46
##lag
SOC
##PRINT
segment
dq
restore
0x02
scr
CHECK
##freq
NR
devc
##REAM
##status
qdev
##ser
sli
##UPT
##uration
exec
##900
##ffset
##down
QU
alt
##110
STREAM
FN
su
volatile
now
##ish
smc
qh
mtu
asm
##ture
vendor
##Table
##cl
prepare
256
cip
neigh
WM89
mic
##FER
delayed
dac
VERSION
gfp
trigger
##uency
MP
##ummy
pcie
vaddr
##ASS
zero
LOW
##KE
hda
##sum
##Key
running
safe
OF
##vec
##VM
VID
system
car
xen
bind
##td
mdp
##idev
ALIGN
##UEST
step
build
##ite
##Length
text
##abil
mddev
app
commit
SEQ
transaction
serv
BP
02
##ORMAT
##UPP
ot
##xp
DSP
BC
0x03
recover
##index
Host
VIDE
watch
prod
generic
##DS
##76
CONT
uint16
svc
##cnt
symbol
##fix
##GET
##FFFF
cancel
cmp
locked
brc
##Adapter
##dn
##av
tick
adj
ih
kmem
SEC
##lx
##Buffer
0x5
hdsp
0x00000000
submit
wakeup
##yte
calc
INTER
##remap
wp
rds
machine
##YPT
RS
pm8001
ri
##Frame
ice
auto
0xc
BE
DISP
iio
ipv6
##rity
##cle
stri
VB
CONNECT
##21
dap
SEN
EEPROM
iounmap
##IFY
push
DL
bulk
present
PACKET
ioremap
eb
mth
pmu
fan
TCP
##rate
FUNCTION
0x04
##rs
iop
##eader
sum
restart
tab
ut
FLAGS
1024
SRC
nc
mgmt
##ORK
dhd
##5K
##IAL
xprt
ccw
##Buf
non
expi
ENC
element
frequency
capture
ubifs
lb
MII
CID
dummy
HT
BNX2
RET
FRAME
##GER
##hc
record
indio
vec
0xa
##ADDR
##DMA
##sa
rates
##665
Invalid
DONE
abs
lport
##ERRUPT
##ARE
##28
AG
SUPPORT
##ason
saved
##com
names
##ph
##Re
FORMAT
play
##disc
OB
argv
##TIM
b43legacy
##ATCH
cifs
QUEUE
media
##adget
hton
sis
FIELD
VOL
##LK
ACTIVE
fib
lib
##frm
##Entry
tsk
mmap
interruptible
##nr
##IGHT
iowrite
OUTPUT
##BIT
AUTO
iocb
fprintf
FT
dapm
##gmt
##cip
##ACT
gadget
WL
shared
TASK
BCM
qos
pxa
ssid
xt
MAP
profile
SG
UINT
bnx2
##event
##LINE
diag
HP
Can
voltage
##01
packets
magic
##wr
PW
srb
mdio
MMC
##SD
bin
uid
FROM
##dma
Get
##urity
strnc
##Rate
##ONG
NFS
sdata
ei
##frame
simple
##rect
##IVER
BM
##52
##List
COL
search
##36
TW
REV
frames
0x6
mnt
mci
console
lr
VIDEO
isr
slots
0xffffff
actual
Tx
mpc
PO
sdp
changed
##ob
btree
##andle
after
MG
NL80211
128
red
##AMP
##VR
MX
rssi
##can
AE
Reg
wqe
##ication
failure
##stats
##AVE
AUDIO
reserve
mmu
##aw
CARD
padapter
##ans
##nable
##pd
##GTH
bcm
idev
##era
csum
##Param
##33
ADV
ML
PD
ER
delete
at91
enter
bs
ks
##ness
pch
##EDI
No
dat
FEAT
##IE
OR
USER
devinit
nto
cfq
##late
##cap
misc
readb
pgd
lm
INTERRUPT
##bg
CX
ALEN
##phy
##ape
Write
##ses
##gra
FAILURE
spl
erase
xfrm
hb
plane
supp
ATH
shut
rqst
au
##robe
TP
##uble
expect
##840
REQUEST
##right
##8350
midi
LOC
##ized
ofs
##1x
fault
WORD
LV
##ORES
##rier
##stamp
Rx
RO
reason
##PCI
sectors
FIL
gt
##SUPP
pack
cor
but
##USB
ether
##Cur
##cia
HC
##Context
dss
##ority
uinfo
##48
##2S
##tex
BUSY
cmds
##char
LC
##ILED
AH
##LEN
##CLK
##BACK
##Write
voice
ACCESS
##turn
capabil
IWL
GL
ax25
BTR
bg
PATH
FOR
HDR
camera
ecc
subsy
##abel
osd
mip
ohci
TT
HANDLED
pcmcia
CLE
##con
##UF
track
virtual
disconnect
##ailbox
encode
blocksize
ee
rsv
cell
best
DISC
PWR
rval
ENOENT
TL
ADDRESS
##ORY
asd
unknown
define
THRE
volume
dx
##table
NODE
offsetof
cn
ident
scale
Unable
##secs
##lags
wb
PH
esp
diff
##PH
##blk
flo
AR5K
DW
bail
MAG
cpum
##icast
vfe
writew
IT
##RST
cck
uv
0xe
##SCSI
gid
DRIVER
main
filename
Command
ii
##ics
##otg
SMB
stv
grp
##MAC
settings
tlb
IDX
RUN
cursor
nfs4
begin
##66
asoc
ppos
OV
bw
tgt
pB
##ETH
##used
amd
props
sid
ant
reserved
wm8
OPT
##UMP
##ISTER
fid
BFA
security
tpg
fo
cx25
napi
Py
shad
wdt
operation
ADC
##OX
##cm
agp
snap
gem
##ORESOURCE
cycle
aux
helper
swap
cipher
##adc
connection
sci
##gine
gs
IORESOURCE
30
##der
##Ptr
cpumask
##USH
ME
SCAN
lkb
DS
COMPL
argp
pub
##gbe
RAD
sin
CA
BYTE
rule
msr
LCD
HAS
LENGTH
disabled
##HZ
parm
RB
sockaddr
dib
mpt
0x08
Read
round
regmap
ppc
strcpy
adv
asc
##ANK
shutdown
##38
FAILED
dwc
double
##sz
##128
SCp
buck
hostdata
##ioc
##imit
xres
##Address
bright
OPEN
CU
mq
fbi
##MASK
rela
p2
##OV
vreg
IRDA
VALID
STA
USE
##onent
##HCI
mh
##dent
##dog
WREG32
bch
sysc
PKT
daddr
IC
##ception
TV
hlist
FULL
##Time
irqreturn
partition
smbus
MDIO
finish
llc
31
tasklet
TAR
vq
POLL
##cipher
SZ
usage
tegra
MPT
l1
##tool
opts
otg
##Rx
##DMI
hv
##sw
##9k
##72
revision
ethtool
c2
xattr
bud
threshold
##sist
cond
EAG
i2400
##mr
##Inter
dcb
##lass
kv
maj
CAN
r8
batter
50
##aph
##73
##flow
cpus
fast
OC
spd
offs
REGISTER
##ference
##Log
##ook
direct
job
DT
ath9k
make
EAGAIN
sport
Mode
##FE
DELAY
prefix
##ccess
bro
pdu
ACK
HEADER
##offset
online
writer
rme
DRV
ED
##ived
EL
rl
CAM
txp
##opt
##irq
we
##yp
##IND
##75
ixgbe
MISC
saddr
COMPLET
brightness
bfad
adjust
##0000000
priority
battery
##IDTH
service
adev
serio
##NOT
gate
l3
hot
##tx
##FT
##riv
0x0f
iss
##wb
MAGIC
cv
cgroup
processor
TM
##clk
paddr
fixup
relax
BB
ear
rect
kref
##OK
MULT
configure
##De
##br
que
I915
RM
TABLE
##Port
TUN
L1
BPF
instr
vor
syn
mbx
hwif
EC
##FS2
tuple
nbytes
i2400m
ce
MSM
##max
##gram
NORM
##RI
devfn
sess
SCT
##NE
convert
prim
HDMI
##INK
DEC
0xffffffff
##PO
apic
Data
##LO
gf
##ui
LPFC
wrq
##Res
##upport
audit
wmi
ttm
##PEG
prog
kg
qd
rout
cpufreq
pcidev
receive
yres
lt
das
##IOS
reloc
##page
prio
bond
hu
mpi
##ANGE
emit
label
ppd
pnp
registers
##STER
mid
IPV
##ise
##ffs2
sep
cid
kill
mt9
FLASH
OBJ
iso
##qp
##FLAG
Could
BTRFS
FM
tg3
##r2
VALUE
##DP
mlog
llx
##500
vortex
move
PG
AUTH
0x1f
amp
ign
##CTRL
MPI
route
baud
##START
SCTP
TAG
screen
deco
##OTO
clocks
iph
am
##cmd
QP
msecs
ENABLED
ABS
##uplex
##2410
twl
AC97
parport
RADIO
Init
coher
##light
shadow
##TS
sun
##fcp
##27
watchdog
##seq
vga
##uch
XG
cvm
##l1
VX
ADAPT
meta
##PA
##Desc
tda
ntfs
##ynos
##Error
##pp
##sign
playback
SEND
alarm
SHAR
UNK
##LOCK
exynos
float
le64
##Get
hdw
FREE
aic
IDLE
smb
ge
##Channel
##spi
CORE
jffs2
early
DPRINT
paramet
##Config
##bject
##Offset
chg
##width
##ulate
##mf
##ENDOR
##10k
sent
exception
MV
##rin
speci
i915
TARGET
##rm
bound
devs
MSR
llu
engine
RSP
##IES
ndlp
ps3
##ntr
major
IE
parms
##Cmd
##DOWN
pause
##Mem
coherent
CLEAR
RTS
spinlock
##USP
phase
Cont
perm
##ts
demod
SLOT
ROUND
##NOWN
bssid
##To
WD
sv
den
could
vmw
FEATURE
EOP
##uence
##tp
##ued
ln
##UME
##700
LD
TEM
u1
STATS
Device
L2
LIM
budget
##Hz
bucket
tps
0xb
pst
queues
memcmp
fim
BAD
##8500
qeth
pL
ISCSI
WORK
##itor
VP
ALLOC
0xF
##Packet
vxge
##QU
feature
DOWN
workqueue
##ric
##Event
xml
hist
READY
lap
pAd
sgl
fsm
coe
allow
UPD
IRQF
wm89
255
DUMP
##trace
RTL
cvmx
##OSE
INC
lower
zd
warning
ip6
##gp
nodes
##core
##YN
##ider
green
psb
RESP
##XIO
##thread
##PHY
nat
ctr
mdelay
PIX
layer
pMgmt
sol
UL
HFC
fsc
OT
therm
EPERM
##kl
##isc
##space
tlv
XM
##ther
##ton
COE
UNKNOWN
nest
qlc
##LECT
pmc
scn
ipr
got
##98
pag
itv
edge
qe
DIG
duplex
bfin
section
##Node
available
raid
isdn
norm
##cfg
18
qlcnic
PEND
x86
rdma
gpu
activ
ADAPTER
MIX
termios
i2s
BLK
QLA
MEMORY
remain
##IFI
fab
pas
blue
##IRE
lat
meth
##spec
##PLL
gd
fixed
pull
MIC
pins
likely
devm
BSS
##SOR
08lx
csi
##DED
ea
oct
FILTER
##enu
cannot
mfc
##Out
drbd
ak
##uf
##eded
aby
scatter
pinfo
VENDOR
hardware
rfk
TG
SAS
fence
mthca
oob
DEL
##bt
##ride
edac
tape
25
nvram
AT91
nphy
##rans
fco
Status
ENXIO
null
##VBInfo
sco
IOCTL
pVBInfo
rh
SHARED
##roc
##Read
msix
mapped
##chan
##ject
##ns
GO
##nth
ioread
##NOTSUPP
cntl
EOPNOTSUPP
mes
SUSP
##seg
rr
IV
r1
prom
LOCAL
##iver
NORMAL
##ature
csk
vari
##att
uint64
mib
dmx
##44
PB
cinfo
##INFO
ipw
ENTRY
##UB
backlight
fimc
##ates
##53
cx25840
hwm
writereg
##IFS
##div
SOF
##ities
CNT
legacy
quot
values
cdb
02X
BAND
r8a
##STR
##965
NF
CAL
pic
##TV
##5k
dccp
be64
smsc
##ling
hfs
TRIGGER
##ifiex
mwifiex
##irk
PE
##ign
int32
##99
##pci
##ilter
RW
PIPE
##mouse
NES
REM
afs
IND
##sistent
##tten
PAD
strncmp
any
saa71
dasd
lg
STp
##peg
dyn
t1
##VC
readw
mcp
SKB
hold
##temp
##SYS
tip
##pad
DIF
overlay
mov
##bits
NETIF
##adata
##74
##FFS
doc
0xfb
sur
##CB
##du
ATM
##66597
patch
acb
Controller
ASC
kobject
ff
##31x
ox
##FB
ISDN
multi
fcport
CRE
##ALE
DO
FIX
logical
txd
##X4
ssp
elf
unable
refcount
##hz
pal
MGMT
##2000
ABORT
##alog
hook
LS
##fore
IDE
ssc
ath6
##mux
DEFINE
sequence
buflen
FLUSH
mfd
XFER
##que
allocated
ath6kl
bpp
##4X
HI
ath5k
recovery
operand
0x07
##ating
AM
##pipe
NON
modes
keys
rqstp
stv0
method
split
wl1271
uwb
location
upper
ids
HCI
NAND
512
wlan
ignore
uni
CALL
template
##iser
##Control
MASTER
WIDTH
feed
phydev
manag
encrypt
##drv
carrier
cfg80211
only
descr
SIS
iowrite32
leave
hub
rot
##ping
##UD
##ended
UPDATE
##CS
##lse
ya
received
VGA
srq
##CFG
fsl
SOCK
##path
mailbox
WAKE
r8a66597
##CEPT
fops
##uth
##Name
multicast
HS
##Init
0x30
cfi
##spe
wrqu
##RAM
COP
CRYPT
##comm
##OLD
fcoe
0xd
spdif
lba
unused
EXP
OPC
##AK
Scsi
##ool
inv
TI
##dep
##cdc
##SSI
CAPT
reiser
##45
cpuid
0x00000
rfkill
##rpc
may
ofdm
##IDE
hdlc
##RD
timestamp
erp
##OUP
825
APCI
MSI
osb
before
nlmsg
##rot
##etch
reiserfs
zfcp
cw
checksum
##8000
LOOP
TEMP
##ISC
button
frags
mcast
entity
scnprintf
RST
psmouse
NT
typ
PCIE
ao
RAM
##ready
DET
S5
##urst
pass
qual
txb
##Command
aead
pvr2
##960
MON
malloc
##Request
Page
r2
RAW
##UTE
fre
PROC
##isp
stderr
brelse
##SN
ISP
##air
COLOR
unlink
xg
NOTIFY
##head
##BA
mvm
##row
too
atmel
##ents
have
CY
expires
DID
scratch
##aint
PUT
irl
LM
registered
outw
##ls
issue
SELECT
##GS
mk
wid
nfsd
files
pmic
verify
argc
CQ
ddl
ifa
relaxed
son
##24xx
fat
##7110
UB
tipc
##3d
##47
##IZ
ctlr
lnum
wm8350
exter
SIGN
lines
##lme
##2b
##Power
vio
pSMB
prtd
panic
uuid
PP
mpu
vcd
SAA
sts
##quot
t3
AX
ccb
DH
##Code
ALG
demux
60
##STATUS
unp
wdev
hsc
yaffs
mf
adm
second
##iocb
aac
##26
##chr
hex
sli4
##ted
validate
CRC
lq
##Pro
##upported
802
ARM
##TES
##plug
##bios
APP
CHAR
success
##Enable
##Stat
regval
CLR
ioa
hdspm
##End
VXGE
PLAY
CUR
wr32
##DATA
CTX
##OVER
##vo
monitor
MPEG
UDC
LIMIT
##ILL
ppp
##ration
ES
BOARD
layout
##aps
SCB
PAL
brcmf
##ody
X86
iwm
CURR
##NING
##SCR
mclk
##DBG
##ched
ifr
fabric
imm
MSK
other
pvt
##aa
slab
Inter
ibm
##fifo
CAPTURE
arm
##np
##Number
0x3f
rose
##IAS
##do
##8192
##hash
Port
##y2
ISR
ipc
OS
detected
itn
fuse
ehca
OCFS2
VO
FLG
stopped
cx18
regions
ADM
wpa
ics
copi
EXT4
touch
##NG
##Object
OVER
sele
constr
##order
vbi
write4
##eep
##111
WM8
##anch
isa
##FX
VC
PENDING
initialize
MR
expected
##sible
bna
##arr
opl
outl
##des
##ERROR
qdisc
cri
IL
##41
NETDEV
PID
gdb
lua
##BUG
##CMP
##isor
ASYNC
sdma
DPRINTK
htc
hf
##Int
##aligned
strl
PWM
LAST
retries
av7110
rmi
IPV6
bufs
##sk
solo
##TX
##emp
0x100
cached
dh
timings
cmap
##less
quirk
##6000
queued
PIO
die
17
Is
COEFF
##word
##WN
xd
psc
IG
overflow
##yo
primary
wol
POS
ftrace
COMPLETE
HASH
v2
##MENT
Channel
##Base
diva
chk
write32
capability
##REQ
LL
bmap
nesdev
##Page
hose
agg
heap
needed
efi
##ERNAL
##Header
##ATOR
je
htons
thermal
lld
DST
##attern
wm831x
##qe
s5p
FREQ
PERF
mat
oss
##flag
written
verb
subdevice
hsotg
SUPPORTED
STD
smd
##UMB
SOFT
##19
##2P
##chip
edid
COPY
dmab
ifp
rom
##9170
0xFFFF
detach
##HER
stride
vdd
VIA
LONG
imp
vfs
##ength
times
pT
itnim
SETUP
igb
cai
c0
menu
tomo
tomoyo
rtsx
adr
##DEBUG
ulp
0x0000000
##IFMT
##gest
mcs
vl
##ARM
aes
kprobe
bnad
ADVERT
calib
b1
THRESH
##FACE
##rec
FD
##sun
exist
##FIX
##ideo
UR
##ATED
##SG
##ek
tk
MAN
cflag
CRYPTO
scatterlist
appl
decoder
rxq
namelen
REGS
hpi
INET
already
##Un
xid
iq
TUNER
ratio
sky2
Th
##ATTR
DAIFMT
##Mask
groups
mute
CD
##ich
##SPE
##LEEP
FIRST
##AIL
commands
s2
margin
controls
##ANI
DLM
udp
uns
p1
pip
SUSPEND
CURRENT
dim
dead
capable
metadata
Unknown
##501
final
supply
SSB
dirent
##ARY
RP
counters
BTN
PRT
##oneg
SDIO
MBX
memp
cqe
##conf
EXIT
SENSOR
GT
neg
##son
DAC960
sect
nop
discard
FLOW
initialized
subsys
##aded
lvds
game
want
vsync
view
##58
sha
##hl
SYSC
##Block
fg
0x7f
ta
copied
enumer
BYTES
clip
words
partial
VS
DISABLED
##RECT
##8xxx
##CMD
##POINT
btv
##gen
##array
SERIAL
##acl
##Sig
unaligned
SPD
charger
##lot
OBJECT
SOURCE
write16
##OBE
##sif
##OLE
##4030
Id
##tl
pitch
##gg
stor
THIS
algo
brcms
INV
STS
repl
gb
regno
##TRIES
pud
rtw
SCpnt
bandwidth
deb
0x11
pC
##pcm
graph
##p2
idr
rio
##NAME
0x90
ck
devinfo
##08
MID
v1
##90x
wusb
widget
##04
dio
PHYS
ENA
##PROTO
##ISE
lru
VLAN
modem
tunnel
ivtv
eff
manager
Cannot
MEDI
##PED
##Byte
brd
IFTYPE
PAUSE
cnic
##cat
##OTE
sysctl
##host
sram
##acity
u132
##vin
RUNNING
ERE
28
##7x
blkno
##utes
avg
CF
##uff
ifn
##PER
expr
STRING
Cur
AES
BNX2X
est
SIOC
htonl
GROUP
resid
##Timer
devdata
fnic
smi
waiting
##ark
##Idx
pI
##3000
requested
##vinci
davinci
##REE
CHANGE
listen
pop
rtl8
prob
NEW
scp
PU
08X
position
BOOT
endp
STV
Ex
clientdata
Add
did
REF
##Start
rinfo
strto
##2c
scc
framebuffer
IA
##78
tile
NS
##NECT
##BS
##over
##OFF
PRI
arp
subs
rtnl
##STEM
##ITCH
pR
usbdev
dquot
##IPS
##CRYPT
vpath
PRIV
NEXT
##ious
GAIN
##CA
S3C2410
MW
##sig
INF
dot
where
ios
##ERO
##PTY
TIO
##OMM
loopback
##LEX
ipa
ifndef
nlh
ion
mis
IOP
rsc
was
emu10k
##Params
rnd
##37
hz
in6
perip
CRTC
##Curr
sdvo
BA
crop
rand
##context
hfc
##231
VCD
##xb
##ILD
clnt
##ANCE
quota
nfc
fscache
ep0
alp
ext3
hotplug
19
dropped
##Str
parity
gameport
hy
ntohs
trunc
BANK
##DIR
transmit
##fuse
lan
consistent
allowed
##ENC
##allback
##ould
PPC
pur
latency
TEXT
##comp
assign
##ide
TTY
der
usec
shm
vnode
which
i2o
0x50
trc
vidi
IPW
HID
interrupts
ETIM
##qui
FAN
alias
pattern
synth
field32
jme
divisor
##sive
kgsl
waitqueue
tot
m2
ACC
nw
##1212
mer
uvc
SLEEP
##direct
Num
icmp
gus
override
img
##arity
kc
##fff
##00000
REL
OTG
remap
##STATE
slice
ssb
vb2
##na
##da
guest
0xC
SQ
lli
##164
##ords
##DL
body
##UTDOWN
mesh
##stance
TRANSP
IFF
##aid
icount
RPC
ulong
smt
pby
##blank
##mount
allocation
fbdev
png
multip
lbs
burst
##value
##XXX
##llib
ibdev
##Dev
membase
##IENT
i8
cla
vos
rtllib
##T2
ELE
keypad
wmb
FORCE
cls
tsc
fdt
##exit
S5P
DBF
EXEC
##gl
capacity
MBOX
verbose
dequeue
BAT
##ions
ROM
ahash
##ntrack
##asic
Req
MLX4
VIR
##ucv
EQ
##LD
leds
LOAD
ntohl
sx
NPHY
##MOD
##Sign
##FD
U32
##SSID
smem
using
ips
##3x
types
box
more
videobuf
##exist
SCR
vidioc
msgs
I2S
physical
OPCODE
autoneg
asic
CONTEXT
UC
font
##2s
##Ctrl
dup
dch
ufs
trap
lcn
tANI
cfs
RCV
##ension
##On
0x9
DN
##imum
fcf
vmx
##ITION
wbuf
PFX
##UAL
els
enumerated
parser
##Max
wrap
##bp
016
##ea
Max
##File
w1
##B0
halt
t2
sata
TIOCM
ticks
jack
cachep
devid
progress
##61
vg
##midi
rng
ncp
##adev
Info
##ret
RANGE
WEP
again
##231xx
##ifb
##BUF
##MR
##error
ast
##BB
cx231xx
##ICK
SENSE
##ANT
##ryptfs
ddb
activate
INTERFACE
avctx
##lb
ablk
VT
##inal
ANT
conntrack
minfo
MAJ
##VMX
qdio
KVM
OUTP
refc
##DER
##elds
##754
##Cnt
##WORD
DSI
SUPPLY
rbd
associ
##USED
##isk
##MEM
clp
0xFFFFFF
22
##Fl
rg
##NEW
##udio
##mpt
vr
##ERY
BD
##mppc
kvmppc
strlcpy
alpha
##cache
clusters
ecryptfs
usbh
0xf0
ps2
bias
dmabuf
##NIC
ktime
qt
FUNC
STATIC
##ear
sst
ia64
CVMX
DSS
fpu
##CSR
##ov
flip
##ERS
p9
uV
strtoul
dvc
##group
##AMPLE
##length
zr
MMIO
connected
##lex
should
NIC
PROP
xor
ipi
U8
SYN
RESOURCE
clr
##dec
##river
##440
cs42
##nce
evsel
QIB
##version
program
mthd
frm
xc
ird
exponent
big
hwmon
remaining
##URN
samples
##apic
dssdev
Control
clks
rtd
##ALLOC
ANY
msp
##Ext
subsystem
##ONT
LN
iwe
MIXER
dist
clone
PN
CODEC
BAR
##LOAD
De
VIDC
pk
items
##A2
##REF
##arse
ftdi
called
1000000
w83
analog
effect
##ties
PVR
Config
apr
RETRY
##Ret
factor
branch
200
AMP
MCS
##TRE
##2388
##OE
oh
23
bot
atl1
##msr
EXTENT
##pace
DV
starget
devexit
gu
hl
nlp
fragment
##TY
fini
coale
##inode
sps
az
##cg
lar
QETH
##tab
MESS
##No
##param
ab8500
OPER
SPACE
##sub
rxd
##BLOCK
##DIS
val64
##pos
##SSION
ZERO
CCK
##LOG
fsg
bam
UNIT
WIN
SMP
##IA
pmlme
##cx
##grp
##BY
advert
saa7
##BR
V2
##Cfg
mdss
PLAYBACK
x25
tcon
DVB
uhci
adp
worker
claim
B43legacy
##ADC
Res
ecmd
##mb
ACL
generation
lockres
bsg
##NEWLINE
##Msg
nsec
STRNEWLINE
softc
QLC
usbd
##102
##899
##Cl
bfd
##WARE
arc
RREG32
rxrpc
0x05
modify
##ctxt
BACK
css
##HED
ioread32
duration
##ino
##STS
##adcast
##IPHER
accept
##rg
tn
##Card
##OVE
##79
##istics
dere
MAJOR
jh
operations
21
MESSAGE
##HR
CLASS
blank
State
ioat
pgoff
dent
agent
mipi
tz
xf
rtl92
INTE
isac
sam
##oot
Mod
POST
INODE
PCH
xpc
##eon
INTERNAL
PRES
APIC
o2
sad
limits
##rray
RGB
0x000000
pmac
##Scan
##68
WC
VOLUME
ffs
##x9
VERB
QUERY
##test
cause
##odate
mips
##ugh
parameters
hr
rpm
DUP
OFDM
enic
gru
##eval
##BU
##SUM
##Rec
##prot
##abling
##EDOUT
EVT
ARG
r0
msb
##ssing
##Exp
##elist
##org
##RX
PART
##1712
REPL
0x18
##vif
oid
lcdc
##bytes
ori
DISCON
48
AHC
##hift
##c0
resol
SAA71
qtd
##ptodate
POINT
##ERV
TG3
tcg
BIAS
OTH
dmac
##IAN
##setting
handled
PREFIX
ASIC
ROOT
##KEY
rest
rd32
##iming
TRANSPORT
##rev
##six
SHORT
##ustom
##ding
vd
capabilities
pair
##Ex
##Th
80
##Ver
##ren
DAT
vars
##scale
returned
asus
SYSTEM
##pected
##SEL
##lloc
blkcipher
completed
uap
year
fattr
nm
0x0F
kr
pinctrl
Out
iucv
##Map
opl3
NOTICE
percpu
selector
mempool
shash
##REV
kthread
cat
defer
hint
##dup
FAULT
STV0
SPR
tmr
icd
orph
##sn
##3xx
##BD
properties
##ner
##Hw
DECL
compare
GLOB
Bus
##unce
qs
##anges
join
scope
objectid
protect
##channel
jz
sir
HPI
##84
##IDGE
##9652
NCR
pclk
kmap
nested
batt
product
##format
srp
ATT
Flags
##isplay
constraint
enet
stand
cra
##asy
viafb
fetch
##ISDN
BF
mirror
small
##bc
line6
Ret
gss
append
rmi4
##hort
rt2
##Register
##BASE
0x06
WM8350
DHD
scmd
MEDIA
df
inl
psy
aa
weight
LEFT
RSSI
xl
fcxp
##330
ccdc
wldev
##quire
SV
uport
RESULT
configuration
PRO
LVL
digit
##bufs
mlme
##rix
##YNOS
Mem
emu10k1
##SPC
wrb
EXYNOS
dcache
nex
10000
##andler
##formation
##MSG
PULL
itr
indirect
##ifier
##OCOL
tvb
maxp
hdrlen
CLOSE
EMPTY
0xA
##FILE
tcb
octeon
fmr
##apt
##ireless
hrt
##sect
l2cap
qla2x00
ETIMEDOUT
ihost
AUX
read32
cit
vram
normal
0x12
##string
H2
mddi
bnx2i
login
##cal
VF
xgifb
##ement
##p1
rss
compatible
irda
GS
usbdux
IVTV
GOOD
SDR
##scsi
##Handle
##66592
FPU
PAN
geo
linux
SetReg
requi
##fmt
kbd
SYM
refs
timed
mant
BMCR
Io
PRINTK
ol
CS42
MUSB
tags
V1
DETECT
isci
CLIENT
IPS
EH
INTEL
max89
s64
##peat
ECC
backup
keycode
spk
Val
PASS
member
SAMPLE
DISCONNECT
##210
##ITH
##drom
FLD
plen
pcr
26
##wait
##tom
##pnt
external
cas
svm
##ERG
##bgain
ACTION
vpfe
##ELL
txbbgain
v9
##INIT
chars
possible
btco
ENOT
##5100
##Ind
ctime
##Sta
s16
PROG
attached
R600
RIGHT
##ctr
txx9
MAR
##DU
export
##Free
SSID
##ONLY
MPI2
excl
bsize
AND
ASSOC
optlen
500
inw
kst
SCI
funcs
fpga
##Per
##run
sio
EMAC
ET
hsync
fields
chanspec
wep
chr
##Pkt
##ONA
palet
cmsg
prec
AIF
mos
##emu
pbm
##sb
##UV
p2p
##inux
##sync
vpd
kaddr
datalen
inf
PROM
##vl
##ERE
bmp
chipset
TID
uf
gh
##ACON
blocked
##8712
PERIO
XT
palette
SWITCH
locks
sa11
TSI
##clock
sclp
rsrc
##401
tables
uninit
gsm
##23885
fore
ioim
pkey
timespec
pdc
ping
parameter
##READ
##UGO
kctl
SLAVE
FRAG
##DD
RETURN
sdhci
none
##Mac
script
gpr
saa7146
ENTRIES
##arp
mig
sfp
fec
SIGNAL
lmc
gm
RIO
icsk
PRESENT
qla4
usecs
##CONF
##oint
vis
bal
ERESTART
segs
nh
agc
Not
##LINK
UNLOCK
WMI
hpfs
VIRT
acm
##ocal
nlattr
rt2800
FIR
##adv
MINOR
dir2
ARIZ
ARIZONA
##4000
chnl
##UMBER
syscall
mtime
##ession
mbus
IER
trac
refcnt
so
sap
wl1251
##Ctx
wrong
##Del
broadcast
##BE
huge
dy
TWL
dispatch
refresh
fx
##csr
ENDPOINT
SEG
random
bufsize
##mix
BLANK
risc
uget
##min
Register
reference
cpm
initi
HANDLE
##XP
gpe
gart
##shot
sort
DISPLAY
##INDOW
ich
resched
SECT
THRESHOLD
netx
npages
##Ser
ipmi
##ilt
0x8000
togg
##GHZ
wcd
fep
##IME
##uction
##Enc
##ward
ablkcipher
sclk
TREE
0x14
ivideo
puts
Log
rst
##rep
streams
SF
alignment
##Flag
s3
##oke
r3
aligned
digest
ENOSPC
cent
##asycap
FCP
cfqq
urbs
f2
WPA
##Off
##QE
API
##String
##IZE
GENER
RESPON
nlm
##laim
ipo
FIXED
nlink
##4xx
component
##locks
rndis
vnic
mite
ENET
esc
##Memory
##ging
MAL
ugeth
SMBUS
isoc
DIAG
DUPLEX
Type
intp
UT
pcf
virq
xs
LVDS
r600
##120
NOFS
batch
##Def
##RO
mrq
dout
##lu
##eter
COR
##ffic
rtas
##area
gpios
##Tr
ixgb
dereg
##level
VERIFY
##ctive
##ME
##RIPT
##debug
##eno
dmap
readreg
bv
TK
CAR
api
surface
r4
vblank
toggle
APR
extract
noise
d40
wk
##isable
REPORT
sizes
NEG
##NET
##quiry
Ctrl
afe
UDP
##ressed
##func
##Lock
tcf
s5k
susp
##ITT
sbus
lapb
demodulator
OWN
##Array
TOP
ELS
bitmask
la
korg
fatal
divider
icmd
logfs
korg1212
HDLC
pq
##icate
0xFFFFFFFF
##b0
##hp
pul
nom
ucode
0x60
DCB
##seud
##expected
##config
decrypt
Request
gi
##PAR
jbd
RESERV
role
udf
IMM
##session
##ENDED
##Result
consum
BRIDGE
meg
ISO
hif
##DAC
LAN
dealloc
iprintf
##Bit
accel
ad18
invalidate
sbd
04X
wusbhc
users
SING
invert
##Se
##SRC
basic
shinfo
znode
mft
acx
CIPHER
0x0001
gtk
##SPEC
nxt
TD
##frames
##BC
PIC
adt
purge
ENDIAN
flex
##9K
expand
##RF
URB
##board
e1
##821
##Current
does
pat
##blocks
irlap
##witch
##640
LAP
jpeg
PERIOD
cable
##dbg
stripe
Enable
NIL
sme
##Flags
noc
DWORD
x2
UNUSED
dmxdev
2x
reading
strncpy
ipu
DROP
gbl
##amic
##HT
Bu
q6
cqr
MY
mali
SINGLE
PROTOCOL
rdata
rings
vmalloc
4096
TRANSFER
emac
ace
VOLT
##args
Ser
##hys
mouse
NUMBER
prox
ioport
vbus
##elimit
##Endpoint
##sung
PROBE
INTERVAL
##ILITY
sonic
0xE
skt
merge
##DIV
##ous
##dump
##anel
##Interface
pLib
cmo
STOR
RESPONSE
pcdev
omap2
##card
variant
states
Key
ONCE
##2d
tune
Ext
##FLOW
##57
##ua
mce
sdr
s1
detail
BIOS
PROTO
posix
bufsz
RELE
##cho
ifindex
rxf
started
ranges
nmi
##ormat
linear
CHG
bttv
ATH9K
MPC
startup
FEC
sih
##Word
bdi
ubuf
qemu
##Is
pAdapter
Int
SDL
ipoib
trident
##anf
bcd
XMIT
CONST
ext2
CTS
routing
GLOBAL
##NL
sound
skge
##WA
kern
IMR
##FIFO
##rx
acquire
##BT
pree
rn
27
RDMA
samsung
##boot
bcma
vidc
pref
sat
kb
##stack
##rv
OPTION
tps65
##bx
periph
IQ
##GEN
txpower
vfree
threads
mei
stv0900
writeback
wm87
ka
kreg
EDGE
pport
wwn
MMU
HFS
##ATT
##SEQ
##256
mcr
ratelimit
summ
SOL
pcmd
##ICAL
##check
cycles
alc
IPPROTO
SPDIF
stage
##match
TF
hscx
r8712
gre
##room
dereference
ZD
SLI
goal
sii
Pyx
##gress
sadb
wf
lk
##llx
slow
rme9652
sisusb
##adapter
para
nodeid
mul
whc
missing
THREAD
##wd
QLCNIC
BAS
##LV
##iter
sinfo
PMU
ireq
##orce
##rox
I2
LUN
equal
##51x
hole
must
genl
dmi
leb
nam
eof
Csr
maps
GM
REMOTE
CEP
XGI
pmem
chanlist
streaming
0xc0
repeat
ng
##rdma
stp
GC
BEACON
rtlphy
ipv4
##lear
l4
TXD
##DES
##108
extents
##HC
SHUTDOWN
rbuf
previous
da90
des
blocknr
0x13
##way
##lm
##oad
##TO
##rops
MET
##13xxx
regist
##REEN
RECV
##CPU
seqno
MUTE
##loat
lane
INITIAL
tda100
##440spe
pcpu
TXP
strm
attributes
##tem
mvs
uevent
METH
saa7164
netxen
dlen
##aces
##pkt
exclu
##l8
devattr
RR
coll
##rob
psession
##USR
##eek
SWAP
##2SAS
MPT2SAS
pce
wm8994
##GIN
##ination
##gal
##UCT
mtx
lut
chp
##Bytes
SESSION
ppc440spe
##GED
SSL
##ids
tcm
orphan
##Of
vco
##IBLE
##hr
sun4
oxu
help
ft1000
mds
##3270
Time
DAS
##entry
##CONN
Fl
credits
disks
ITEM
val2
##by
reject
##orb
psessionEntry
##LL
ROUT
intval
##wm
##TIME
snapshot
##Bss
jfs
##IX
##Level
sctx
apply
plug
##250
OMAP3
##opy
##hi
mca
dispc
CEPH
MCI
##8x
rows
##sem
##iscsi
##93xx
orion
Interrupt
sscanf
pBuf
##upp
mbhc
keylen
##ulation
##ICAST
native
HF
RQ
nfsd4
timeo
PMC
##sce
tsp
capi
ati
##411
py
cma
NB
plan
dprintf
##UNK
##9c
##olean
MUX
##buff
##UCH
0x0c
UD
kdb
DEBUGP
ew
##timer
STV090x
##UC
preempt
Link
NI
nls
##52xx
Opt
##cent
sca
loaded
vhost
QOS
PPP
sets
##ising
ncci
##APH
anon
29
##seudo
fsi
batadv
COMMON
sit
hour
ADMIN
RN
wx
coeff
RECOVER
beiscsi
memcg
namespace
reclaim
##alc
clkdm
cpos
IPSET
COUNTER
required
##km
dtv
hpd
##lose
replace
KS
iomap
zl
CREATE
MIB
Start
##Queue
##gno
##affic
ddc
LR
##sing
eval
REPLY
##aque
EXCL
pwrd
WINDOW
##OTA
charge
DDR
oclass
##f0
AGC
general
##UI
##baseT
DIRECT
BW
##enna
MK
t4
SAM
c4
Part
rtl8192
guid
MIPS
FAST
##Link
iovec
gf1
byt
bq
requests
mss
discover
alter
##irt
AMD
##EA
##SEG
FF
plu
blob
##ransmit
pbuf
##980
LDO
##oam
rme96
##gain
nents
NX
execute
aml
truncate
CHANNELS
##add
reader
##ESH
omap3
KMS
usbhs
Packet
##Con
lpm
pW
DTR
wireless
stamp
ldo
MSC
CDB
writeq
##atm
##Char
ws
##Filter
rcd
wa
MCR
##CEPTION
compute
##ution
HV
dso
##493
##oard
ADVERTISE
##scr
intfdata
##5535
ordered
##AW
ep93xx
##ative
echo
##MAX
write8
##bh
iput
ENCOD
PHASE
##dp
oi
nskb
0x24
##ulk
63
ELEM
prov
XD
##iq
##IRQ
plugin
dynamic
deregister
Buffer
dptr
intc
sglist
undef
Sy
ACCEPT
ptp
SSP
XFR
scal
rts51x
nesqp
Fir
fu
pP
##130
pm8xxx
vout
gam
mdsc
adma
ice1712
##TRA
wac
VECT
ig
MO
inp
NFS4
##ICATION
##SEC
pnode
HDSP
AX25
crit
coalesce
w2
s3c2410
##PTH
tsi
STAND
##360
ehea
Send
Couldn
pHT
qpnp
AGP
opaque
##ssoc
##vr
oz
##Path
##iew
cpup
station
##PROG
axi
condition
good
bfq
##216
DCCP
hop
mpic
LLC
keep
##lbl
Cmd
OSD
PSC
VAR
prealloc
IIO
CONNECTED
SON
##UST
inet6
##pdate
ATMEL
unsupported
##mitive
signature
##MIX
PDEBUG
##RT
##iag
##ned
a1
PyObject
##asm
periodic
0x9097
niu
addrs
MAY
DIGIT
twl4030
cqp
DEST
##ause
##msd
##uart
L2C
##ALOG
MULTI
FRAM
pmlmepriv
pbl
RECORD
pTx
ERESTARTSYS
##Err
UBIFS
AK
gig
CDC
##thdr
##Hal
enqueue
PARITY
sile
LSR
33
New
FMODE
areq
PRIM
custom
pkts
kunmap
wdata
wcd9
##ACY
MODEL
bug
##SL
RELEASE
netlink
AHD
sprom
SCALE
##tle
drain
##For
MCDRV
bnx2fc
quirks
cckt
bottom
NOW
Tr
##ced
##STA
isar
ofdev
##chron
EMU
##asure
##HW
##osure
##910
##fied
Temp
##OPT
##ges
secondary
offsets
Address
44
peasycap
dlci
##chain
LIB
barrier
ssi
wcd9xxx
1UL
fip
router
csio
WITH
nvm
pict
ever
INST
coef
ipg
##116
edev
##hb
##OY
BRE
s8
##DEVICE
formats
TERM
COMEDI
UV
##byte
hrtimer
MXL
tq
slic
nas
##xbb
cmdline
valuearray
ccktxbb
smu
kw
METHOD
iova
0x55
RI
large
##eer
RESUME
ovl
##384x
##Rsp
RV
##BO
bootmem
usbduxsub
sccb
##attrib
UINT32
##Auth
h2
draw
wlvif
PDU
##vnic
##onds
##proc
##An
##OLEAN
STEP
##Struct
aio
BUILD
0x1000
##BIOS
##DT
tries
##Mailbox
s3c24xx
##RESET
Full
ONLY
fsp
##activ
##fm
0x80000000
pmcr
##RATE
t0
##move
autoc
##call
##stal
VOLTAGE
##FREQ
##pages
evlist
##arms
##var
##SM
CRIT
ampdu
gtt
khz
LCR
##ove
SUN
statistics
ipx
irb
xm
##lf
c1
er32
TOUCH
##mu
drvinfo
obd
dsim
tabla
pD
##430
##bind
BIG
##CES
nvkm
FIM
BOOLEAN
mxc
opnd
backend
xenbus
m66592
IRUGO
TIMING
nfserr
##orbell
##958
colum
fas
grant
##ens
content
##oice
mvi
INTEGER
download
##ization
instruction
##7000
##filter
##SW
##IVATE
BIO
##artbe
vpe
##inate
##HI
cts
mantis
elements
ENTER
shmem
outp
needs
EEP
cdata
nesvnic
Offset
ENOSYS
##enr
##Comp
note
##hand
##WB
cry
##Cap
nv50
throt
retlen
ww
vub
FCS
SECTOR
##Blk
IEEE754
fac
##7xxx
##active
od
mISDN
0x70
read16
XML
tmpl
##MII
##enand
XATTR
encoding
handlers
##ia
SBE
##11x
##Pre
IGN
##Bits
lis
ucb
##ISION
mpeg
##OFDM
venc
p54
hpet
##pool
polling
primitive
##Interval
n2
carl
##8390
u4
s6
CCDC
APCI15
TKIP
The
##Global
##uv
lid
ARCH
##NO
##HAL
ess
digital
WIFI
##fic
##512
pLed
##JECT
##ctrlpipe
trim
carl9170
tmp2
WL12
VIDIOC
TLB
c6
stmp
CX18
STACK
##CHAR
altsetting
Target
##ETER
Panel
bar0
dwc3
pwrdm
EAC
##Version
##2xx
pend
WP
0x09
36
qid
pFrame
deliver
##man
under
CASE
##ENABLE
##EXIST
wi
binder
##uto
DWC
##DEC
NLA
MATCH
##olog
##N1
fch
##sts
BRCM
##Rates
hm
kstrt
matrix
bitrate
DOT
b0
##plus
suppli
unix
CPL
SEE
RME
VFE
NEED
imap
VERBOSE
ibmv
accum
##hw
00
##Unit
##ESS
IMG
wss
pulse
overrun
##audio
##limit
nacl
##A1
##sv
uptodate
notice
roam
kgdb
dom
MALI
cop
keymap
bund
##Op
shca
hdd
##sta
crb
heartbe
pmcraid
EFX
IoAdapter
Block
##wap
##rinfo
scs
levels
vn
MTH
EACCES
##67
SERV
strings
##proto
STATION
udma
##HDR
pctl
##82xx
m2m
nx
err2
kind
Return
DYN
suspended
##5000
DESCRIPT
prof
ccid
PMD
kick
zu
EF
storage
date
##ke
EST
circ
##hal
variable
parts
fake
RATES
mdm
pen
rt6
pHTInfo
##2100
balance
CIFS
##PIPE
onenand
iot
##assi
lost
CHK
mal
jeb
cpc
IPA
INSN
Enter
##FIELD
uaddr
TPS
pmp
##Float
pl0
offline
##BITS
ATTRIB
Current
mpq
##pg
snr
rid
pgprot
tmd
share
pps
csrow
standard
ctrls
SME
iu
x1
##1200
chunks
fram
HA
0x16
percent
iocbq
ints
addr1
ae
##801
COND
freed
CONTIN
rtl818
##apsed
gamma
ICMP
##320
Memory
NVRAM
PMA
icache
Dbg
inbuf
##46xx
strip
Isdn
NOP
##class
fhci
pseudo
HALT
dcd
OHCI
##Counter
##etect
directory
##Rule
AI
##etwork
origin
##Low
vub300
THR
BREAK
Dbl
IPR
##lv
ALARM
##aptics
UINT16
##oll
##ample
kbuf
##rement
WM8994
##GP
aw
pcibios
ANALOG
transition
Fsm
##LESS
atc
SCU
SIR
VECTOR
##High
bnode
SAA7134
rfcomm
osh
sim
##bling
descs
initiator
val1
clients
ibqp
##T3
##ASSERT
RF90
vals
prism
BH
CCM
slim
jump
special
##mod
OCT
IsdnCard
Check
mcb
virtio
wo
RECE
memblock
lpt
mwl8
mwl8k
peek
gfn
cx24
SATA
pcic
##eta
ENCODE
SECON
mxs
AFE
Fr
opp
ari
##ISED
LI
bytenr
##SSR
keyring
srcp
rawmidi
##Pri
MTD
maxlen
couldn
cs46xx
pxmit
##slot
pmb
SDF
Bad
aty
0x400
LT
##gpio
cx23885
CPM
C2
##tree
##ology
emulate
OVERR
adre
adreno
neighb
macio
ptrace
LAY
##essed
links
WDI
CHECKSUM
##uring
##ONF
##arc
spur
BTC
INS
CTRL1
##OLL
mlx
sysclk
CAPAB
##ENCE
cli
35
##2p
##tag
gfar
##eacon
DEPTH
##03
##BUS
efuse
##enum
ICR
T1
cval
REGUL
opened
##ttrib
splice
tone
CALIB
##green
sony
##etype
tempbx
psr
dpll
readq
heartbeat
NAT
##assoc
skbuff
mxl
mcc
##ENCY
##ARCH
CHUNK
LAT
##9000
strict
credit
Event
0xB
##ERA
##OTAL
##fact
forward
0x00000001
0x1F
our
bundle
##gpu
##mplete
##710
AIC
selected
d1
removed
0x200
ptd
fname
stateid
err1
SYMBOL
clocksource
CRT
dport
ESP
adjusted
stag
deferred
B1
ttusb
dlc
##LANK
LB
fl6
SMC
hwc
extended
ob
##MUX
##Proc
ORDER
WAKEUP
LOOPBACK
##mmon
pdesc
##SCX
mcbsp
ictx
##oop
P2
resize
sack
##E3
reboot
optval
rgb
##GRA
package
dram
##RES
compress
traffic
##oppy
wifi
##rink
RFC
rpl
##1010
MIPI
##CK
##ission
CK
crystal
ISAC
nasid
CCR
CI
##5x
MOUNT
Timer
Fail
cvs
HPD
XC
dip
TCA
NILFS
WRIT
vino
##oid
SDHCI
##olor
cpp
R1
int64
freqs
nv04
SPEC
psf
fput
##ful
127
Elf
##sd
ADVERTISED
trb
Initial
same
TOK
##FLAGS
##irm
Se
nn
evergreen
Reset
vmcs
padding
sav
CG
LSB
RECIP
##VT
ADH
cci
sink
highest
TBL
scm
BEGIN
0xa0
##MHz
##verse
cow
##inder
HARD
cmpl
pattrib
##utex
doorbell
blit
##SIZ
BG
CSUM
##Reset
rename
MTU
HIF
NC
##ULK
MPU
sds
PDC
LPC
##chn
sband
##reate
nesadapter
##Seq
MAIN
v4l
P2P
ADHOC
sending
ssl
regbase
##TP
IsdnCardState
synaptics
##iw
Board
adb
CAMERA
##dest
GFS2
b2
##STAMP
als
attemp
##ceiver
DMAC
cdrom
hwirq
sens
##AF
day
elapsed
psize
polarity
pca
children
specified
fusb
##lun
clamp
marker
##linkage
TDA
##OMP
cxt
unw
##3D
##ICR
xlog
saa7134
bEndpoint
FCR
brow
ADR
wil
netlbl
TIF
##1362
seconds
iadev
data1
##PHA
tsf
atime
##step
vmode
##mixer
install
PCMC
crc32
deinit
phb
vptr
dpc
than
lps
aff
bEndpointAddress
descriptors
cosa
updated
##QUEUE
lvl
FIF
##365
replay
##zero
pinstance
##627
etm
mt9t
resi
ua
##Nbr
##ssi
EBAD
##170
##UID
##Clock
##Check
bcn
0x0a
RAT
phw
##Ctl
isl
onoff
classdev
vme
c2dev
##ND
ixp
WLC
asmlinkage
udata
lpc
##60x
##Roam
wacom
notification
RDONLY
qm
clockevent
##Next
CONS
SEM
unique
cpl
mtrr
SIOCG
sin6
BULK
what
tmp1
Wait
vpi
##mmc
##Fi
ddp
##ACTIVE
##BLE
##ITOR
IPC
eee
subtype
srate
MACH
##acc
##imax
confirm
IPATH
sn9c
##EEP
SENT
FAT
qla24xx
segments
tdev
REAL
##ression
##8723
tioc
81
##v6
xmm
##acement
mtt
##820
zon
##fw
backing
RXD
lockdep
amdgpu
##TING
##peed
lis3
##ITTLE
PROFILE
##left
Count
##oon
##HE
cmos
iphdr
ioc3
epnum
sal
GF
rme32
cgc
##Sy
P1
LITTLE
##iate
##Io
floppy
mdata
##den
qpn
synchron
sbp
##dat
8x
SOUND
gbe
sibling
##ocb
gpmc
##scan
BRO
unre
##ona
##vision
mn
##dt
FIN
M32
##509
2000
##chg
##bk
FOUND
##rp
##ANE
Do
##ached
advertising
Chip
mpc52xx
strength
dot11
ier
##945
Power
MT9
##904
AML
interp
shrink
PAGES
PANEL
column
##FFF
msk
xdi
debugl1
rlen
PCMCIA
cx25821
##ari
##copy
##Mgmt
signed
pfm
##182
inodes
r8192
##39
lcnphy
##ETE
extern
##MHZ
##Flash
##200e
strt
dpm
PS3
GE
subdevices
DIVA
PROMISC
MCLK
##WAY
fddi
##term
omapfb
bounce
team
fore200e
bbreg
##Sync
##sf
deleg
lum
##sired
pnum
##roma
Hal
plx
0x800
DOM
##6040
turn
MTHCA
PROD
pinmux
information
##vf
rfd
phdr
NFC
bRequest
Length
EINTR
##Rem
SCH
##28xx
##LER
##apa
hpt
tpm
##round
##328
##auth
##Format
##disp
MONITOR
##reshold
sFrame
qlen
eax
ucc
w837
vpif
strchr
06
##TA
##OTH
##field
##legal
##ror
##leted
extension
addr2
##CHAN
##wData
##148
ani
vectors
aborting
chrdev
FCOE
unmask
mst
##New
WIRE
##Sub
hmac
ISA
cairo
cvp
##Sir
devno
0x15
aborted
DEAD
##eight
PORTS
osc
asi
HAVE
XFRM
CLOS
COMPAT
##Led
vci
PCIC
##Class
##8225
VR
hostap
fll
INFIN
CNTRL
hap
EEXIST
DIGITAL
browser
mismatch
cfb
##flush
iowrite8
vir
hcf
##ian
S3C24
ahw
ptl
pred
loops
UM
##4740
vers
##mage
##FFER
##lement
half
iterator
ENCRYPT
pixelformat
digtable
rmidi
##ulated
BURST
0xfe
devname
##Head
lro
CS4231
##xl
crash
0x17
YA
WB
ddr
btcoexist
results
2048
RDS
0x21
shdr
platdata
targ
v9fs
DEBUGFS
##aster
waitq
correct
##Handler
fchs
HFA
gap
##UART
##SPACE
L2CAP
##fier
##tmp
DbgInfo
HALF
DIRTY
TLV
##alock
bbp
FIRM
RISC
pHwData
RCR
##Ne
SRAM
gw
PROCESS
f1
dbs
300
finished
HTC
int16
stere
csa
##SA
inum
description
mctrl
glock
02d
##STORE
wdi
INO
akm
CE
vcn
Index
compound
vbase
ini
YAFFS
P0
WE
usbhid
##8180
PARSE
##ORITY
hbalock
enson
imr
aic7xxx
constant
ensoniq
##154
##C0
DELAYED
extend
##iss
topology
##lic
vide
##kp
Rece
added
##WRITE
qi
##8058
sn9c102
wIndex
##2bin
pts
unpack
chips
SPRN
rmp
iattr
ddev
r10
##erature
rtlhal
chroma
grab
transform
0xfff
maxpacket
PX
CDBG
SCLK
pcc
HY
LASSERT
##Dec
iocmd
lcr
util
ttl
##URATION
##x500
identify
##8211
EXTENDED
NLP
DEMOD
mpa
##gs
##image
##7x00
c67x00
##CLE
DASD
##Src
SERVER
nvme
##NA
tmio
ad71
##GACY
exch
tmo
##new
##3100
GATE
Sgl
##rough
timers
rtl8225
MARK
##IZED
nuc
ioapic
IA64
argum
TB
unc
initrd
cells
PTE
PARAMS
stub
cand
##NodeDB
cpuidle
##UFS
tpd
bands
##robes
fsf
mob
a0
wimax
ibss
stereo
i40
CAPABILITY
room
PARAMETER
##Opt
PREV
ltv
association
##001
when
cpr
HEIGHT
contig
rmnet
pskb
maybe
TSC
compl
ngx
zs
MCF
##ations
ECH
cpuinfo
REVISION
##PROGRESS
skb2
##top
adis
psta
AVAIL
gso
W83
SIO
lance
RSS
aggr
MIDI
CHR
Pro
##frag
uspi
##f3
##En
B2
ltq
pt1
lanai
headroom
cvt
COMPLETION
AUDIT
corrupt
fallback
MULTICAST
NVM
##riptor
##Rep
##SIR
cdi
wlandev
mc13xxx
calculate
vfd
WM87
vdbg
compr
3d
##Gain
0xff00
##faces
##ever
org
tm6000
alua
md5
##CEL
CAPI
dvo
eps
L3
016llx
usbvision
EXT3
##Record
keybit
VIO
bcmsd
reqs
objects
cbfn
##case
opc
0x44
VCPU
writing
JFFS
SUPER
2056
vfp
hpriv
##770
backlog
##open
contr
ADT
JFFS2
RESERVED
amount
##2200
##ygen
eno
i810
VG
king
ircomm
iwreq
STB0
nocache
##idate
cols
STB0899
oxygen
fbcon
tinfo
kingsun
P9
##shake
PRCM
DDL
Value
comb
chans
pj
HR
##WAIT
txpwr
bpl
ym
VN
##EON
ipw2100
avc
late
transceiver
perform
dtr
sri
D0
symlink
arb
dum
REGULATOR
##hysical
prt
ALT
BROADC
bcmsdh
2T3
prism2
H5
resv
2T3E3
bip
isp1362
##OBJ
siginfo
specific
##Pwr
##31X
##tek
trip
##orn
reserv
arg1
blink
##ufact
cfqd
phandle
hpte
oem
will
FPT
SYSCALL
##802154
0x1c
##icmd
##adr
portp
gsc
unexpected
IXP
yes
REMOVE
Adv
UVC
dict
stk
d0
##nder
mpt2s
mpt2sas
##29
vv
##828
qset
##lem
MSIX
iscs
MXC
pwdb
MH
csd
FIRMWARE
hh
PREF
HAR
WATCH
dnode
iowrite16
MSB
ams
adapt
DOT11
expire
iscan
##oring
xy
bcd2bin
mxt
##rel
mle
##LIST
FSC
0x10000
##Stats
CAST
##3501
WM8962
RSV
LEGACY
##BLK
pipes
lprops
gst
conv
data2
denali
192
strdup
inquiry
disconnected
flowi
stac
VSYNC
HLEN
##esa
PCR
usleep
##misc
##sid
tstamp
##RPC
bprm
NONBLOCK
##LIM
pde
zbr
til
qhp
ui32
##p0
iscsit
bfi
discovery
PCIBIOS
masked
##ormal
nomem
SLAB
##Bus
##ome
##EV
center
cxg
##ftl
4x
##From
rtle
##2bcd
rtlefuse
out1
ew32
stb0
stb0899
timeval
bay
##367
thr
wanted
##Alloc
##59
##PROC
IMAGE
0x88
speak
##160
js
##save
HB
dinode
antenna
decl
OPL
consumer
ptep
pcb
LOOK
##reset
##CRT2
PM8001
##ABEL
SGE
##Assoc
##310
lvb
PAS
tap
HostAdapter
Free
##repare
unload
tea
RCC
sfb
scu
rptr
cstate
REGION
##tbl
fsb
R300
guard
Nv
gpt
secs
##3s
strcat
##IGA
LINUX
blen
supplies
mas
PRIVATE
REAS
built
##MM
##AA
nl80211
lh
TEGRA
dcr
resolution
##BOX
ADJ
etd
mgp
SERDES
APCI1500
aSig
pmsg
BFI
VOID
VBI
dialog
##811
##assifier
SUBDEV
##pf
ESR
PRIORITY
GST
##STATS
P3c
SONIC
ath10k
a2
EID
wave
sigset
##emon
##NodeDBTable
outs
INET6
DESCRIPTOR
inuse
0x7F
PV
qpt
dpms
##104
em28xx
EP0
PM3
holder
##activate
f2fs
tmf
CONNECTOR
ifc
##ou
##IRK
Setting
WM831X
memmove
IDENT
dinfo
dbug
registration
trylock
ve
iget
Qdisc
spmi
wbc
##dis
cntr
##lient
laddr
usbnet
##NESS
MODEM
##orrect
##PECT
cxgbi
0x1e
gic
##Connect
iir
NTSC
##2R
ENG
NETX
0x0e
##n1
0x28
##8695
mapbase
TXRX
UCODE
rsb
prcm
iser
##day
subchannel
matrox
regset
once
MCAST
Uns
M32R
pRx
tif
MSP
IOCB
fact
flat
OX
##del
OCTEON
##erved
PREP
ICH
jz4740
##ount
SKIP
Clear
##XT
##notify
STOPPED
Number
befs
xb
rxb
##ICES
devp
ECONN
##sis
PSB
##around
DOMAIN
POINTER
crq
##RED
##633
lst
mrt
WIRELESS
##go
ASN1
Alloc
pHba
Sh
HDA
pCurr
OTHERS
Bit
bin2bcd
GTK
QAM
ber
##WLAN
measure
BNA
stmpe
SREV
coda
kcalloc
upload
configured
0xD
##POON
##64x
HARPOON
BLOCKS
lch
YUV
v6
mx3
reg32
OTHER
sms
04
zdev
uchar
held
partitions
ppi
boundary
collect
tex
PACKET3
##ied
##inity
pixclock
TWL4030
pcap
T3
imx21
##GSL
##cop
##IRM
##Enabled
HOT
iflag
handshake
57
Op
##NP
strbuf
summed
SMT
ldev
##GRAPH
##LCD
dfs
ifx
cmdiocb
##ICT
maximum
fps
##rofile
c4iw
rmap
unbind
REASON
nuc900
48000
##Chip
smid
nsp
generate
BS
callbacks
rules
##dac
dsidev
rwsem
e1000e
jbd2
Modul
##FCP
v3
##sen
smux
SAVE
bS
wm97
RPM
mt9m
ENCODER
##WORK
AIF1
screeninfo
PRAM
PARM
CHANGED
alive
temperature
##Priv
pubpi
##request
##acpi
banks
hfa
##PLUS
rmh
##atory
Logical
ushort
way
todo
rfcsr
##2G
##urb
stdout
nids
Rc
ibc
##YI
toc
enough
hvc
##wise
o2hb
##825
##FW
KM
##aphore
d2
##pass
##4965
bounds
vfe31
MANT
gend
5G
PCS
##ict
D1
srv
##ofs
freeze
##side
ibp
TILE
irc
##mark
nblocks
##UNC
sessionId
##OBUFS
FLL
max77
38
dmar
##Phy
Asc
modulation
PSDevice
KGSL
FALL
dpcm
subsc
qla4xxx
SSI
siu
2GHZ
##stype
AO
RESTART
EINPROGRESS
##opts
i32
SHM
scsicmd
NDIS
##50633
mday
THERM
rphy
##zona
0x43
IPI
TOTAL
arizona
ENOBUFS
pthread
##ULTI
rfc
S2
##Ref
PWLAN
##och
##ETCH
0x41
ZFCP
numa
ept
readdir
##shift
rctx
gettime
DCD
##Ring
##display
vw
RAID
##ICY
IPG
xi
##1710
On
cwnd
DSR
##L8
inputs
errout
PSR
PROTECT
multiple
atl1c
constraints
ub
MESH
read8
anch
tos
##BM
##anding
0x0d
kset
asp
##PAGE
cro
PATT
exists
##220
##Active
clas
fds
PGRAPH
##ogi
##9003
blks
##ODATA
bec
UFS
qcom
IPV4
hang
plcp
NCR53
Firmware
##fixed
CONTINUE
34
aen
Comp
facil
seek
FPGA
SERVICE
##Logic
##lection
datap
bmcr
devnum
wmm
##Stream
gendisk
vpbe
hfa384x
eSIR
##verage
clkdev
FTR
beep
##send
##lus
##UA
rtx
pu
configfs
##r0
wl12xx
txdesc
bdaddr
Unsupported
##WIDTH
dmas
kprobes
##enable
TOKEN
STP
inject
SPL
foo
opmode
cos
sriov
lsb
pfc
##oco
PATTERN
nolock
RDY
iob
EFI
##Pos
##106
fork
coex
masks
##inter
ptrs
datum
Timeout
picture
Card
##hip
##ISHED
hbq
SCC
##iva
##ocation
##PTR
heads
alsa
IBSS
##650
##SRV
BID
recs
many
bma
##DEF
DIM
pMsg
##pin
##igit
userdata
reg1
To
0x0100
##Input
FROMDEVICE
smk
PFN
##Message
##lict
MANTIS
##abase
##rive
##6K
ebt
##ONEG
lang
quality
0xe0
gsi
##Valid
ModulNbr
SPROM
sisfb
##00000000
pmk
##llow
mdc
##zz
cnode
minimum
uobj
retcode
uh
tei
ramp
radix
##ENS
##Host
desired
synchronize
mhl
##sock
out2
WR32
##GX
0xfc
pBSS
##LIB
sarea
PRINTF
tit
decomp
C1
mt9v
##927
QD
IBM
JPEG
MGA
SCHED
b3
ReturnValue
##PASS
spte
fsnotify
##amble
C0
offload
joy
Found
AA
##Do
hyper
two
AUTONEG
IOV
lkey
dut
##oi
crystalhd
rmt
unprepare
bufflen
##AX
##adio
##Timing
##ACHED
lz
recalc
iocfc
##Callback
dbri
reorder
DAP
0UL
processed
##flip
SDRAM
e2
loss
DAV
PIXEL
rtl818x
##erg
rxp
##NUM
##ARP
tosh
SUITE
PARPORT
Addr
TMR
##MCI
SCO
qf
INTC
S6
##ally
##isa
edesc
net22
trail
##PTE
Base
Byte
tcph
bvec
ENB
##903
residual
UDMA
##INCI
rrq
BROADCAST
DDC
rxon
zc
ps2dev
LOOKUP
OID
83
##Update
cif
##uler
##vail
give
Size
hlen
##uous
nvt
##ised
##2D
##gd
2d
SPC
BIND
SEARCH
hscb
acdb
azx
black
pBt
integrity
##ddy
Module
##3945
aif
planes
DCR
tc35
calibration
##Interrupt
DMX
TOM
cput
mdp4
Driver
TRAP
##ality
Frame
original
##E1000
##IDER
hdisplay
translate
WDT
##ruct
0x3c
cyl
##ater
rxbuf
##Infos
cctxt
000
adsp
EN0
tport
##Session
i40e
RECOVERY
unref
mpp
##heral
rtt
tSir
BusLogic
indexed
WM5100
IOMM
##mult
tvp
IMX
usr
##DESC
Mlme
##lr
##PCM
builtin
##18271
DF
scrub
pcs
DA90
oprofile
ug
ies
cs5535
CRB
##4939
##Send
proble
##ABL
DAVINCI
MFC
iforce
STERE
ODM
##vol
MAIL
##Signal
##2B
##ISING
VME
rtlpci
##1480
##now
##Point
ieee754
OPERATION
##Tag
SSC
sip
hostname
glue
brk
MYIOC
Ndis
pring
cmm
seen
workaround
##sym
z2
IFACE
selection
##domain
##CNT
tst
exce
orin
##urer
hists
score
ISDIR
##mplement
mos7
rspq
0x81
seed
DONT
dcdc
dca
hfi
##exp
BSSID
bcast
##AVAIL
CHAIN
PTP
##Setting
press
CAUSE
INITI
dimm
##At
##ines
cptr
mobile
##otify
0x38
##1394
##8042
##112
0x00ff
bhs
expired
fing
lcs
tkip
btn
hinfo
boost
starting
IPAC
duty
details
NCR5380
Con
cspec
UNSPEC
IOMMU
##TREG
sensors
##PD
spa
resync
zor
lineno
rmpp
pnfs
##AIM
##II
##speed
hit
hws
s390
##f8
SAR
vdisplay
##ENAND
##ot11
##system
sle
##230
XEN
ADB
tasks
POOL
cx88
JZ
lowest
stall
##ufacturer
cmt
geom
Half
UWB
unicast
CCW
fsid
blkdev
assigned
eap
portid
inval
evm
CONNECTION
lsn
##osite
ARPH
fdmi
edma
limLog
pmf
ccp
cpuc
PSE
dib7000
kfifo
ldisc
u3
ENUM
btc
subdevdata
DPLL
viapa
viaparinfo
SPS
LOUD
pInfo
amba
ARPHRD
tsn
sNodeDBTable
##ISER
ahb
##1724
SCRATCH
B3
U16
##coming
lsr
WS
##evf
##eprom
writesize
##select
boolean
ANTEN
##7007
P3c4
outbuf
##ACPI
sn2
cryptoc
um
ENT
CSR0
BRIGHT
pac
setkey
cryptocop
fis
promisc
FATAL
orinoco
hor
##typ
tlck
##TOOL
Using
##101
ALERT
writes
016lx
##CR1
hnode
deactivate
##chem
ISL
chanp
##OME
pm8
mot
0x22
collision
##orith
##r1
hpc
##fid
DOC
SECOND
MF
maskset
ModeNo
RESTORE
l2tp
STEREO
EMERG
##X2Y
CTR
ch14
incoming
##ra
fusb300
##stub
alert
dqp
##sep
cgrp
SO
dfixed
BoardInfos
##ntl
Ref
fdtv
swiz
BITMAP
##FRAME
gdbstub
QUE
inactive
CTCM
smart
temp1
STANDBY
ignored
##GPIO
RH
##Cont
##low
aper
daemon
RFP
##OUS
swab
ucs
mmp
essid
XPC
pixels
##4XX
r100
z1
indication
na
selinux
##root
y1
qla82xx
iwch
WH
busno
fst
ROLE
sparc
RISING
##Select
sa1100
POLICY
RXRPC
lna
functions
CMP
arg2
##ocket
compressed
nvec
blocking
01
swizz
elems
##2500
destination
spare
sender
realloc
MBUS
##izing
proxy
superblock
TPACPI
opl4
bypass
quant
REJECT
CCMP
hso
Instance
configs
##UED
##SIS
0xF0
LCDC
lf
##Change
HSCX
LMC
mga
ireg
mdesc
Msg
##mainder
##ooth
En
pvc
binding
##bulk
##768
refer
semaphore
Ind
0x0b
Queue
##F0
units
giv
##par
yoffset
falcon
tpt
conflict
greth
##lier
FIB
preamble
idt
lif
##FMT
mport
ONE
DISK
t10
packed
##OFDM0
##Al
STE
signals
LISTEN
STRUCT
0x1b
gpioc
s3c24
0x4000
tsif
##ADD
slock
bInterface
APCI1710
BCMA
vh
ETHTOOL
putc
##Hdr
39
cards
csi2
##Delay
Mac
preset
CONV
##orithm
sl811
##NAL
##ryption
rfb
##PACK
dif
##ediate
phm
stv02
##TIMER
mu
ENGINE
##oft
RPS
##Le
uio
##chdr
PJ
DIO
##ified
TICK
dib7000p
SOCKET
##5536
vel
##pio
ail
##FN
kbase
FH
CONFIRM
##Lim
##2400
INTERRUPTIBLE
WCD
cis
##SCALE
hsic
FAM
bmbt
edp
oom
CSC
##Dest
CQE
##BSSID
mace
hotkey
CPUFREQ
##Trans
autom
wcn
je32
##Classifier
RG
caller
psn
dput
PRIO
Low
dual
SLIM
stmt
PINMUX
##Supp
Clock
##6692
NETWORK
0x19
##files
##901
qui
mgt
evtchn
##YGEN
matches
56
##Output
##text
created
##CR0
UBI
gprs
hwdep
INACTIVE
CTRL2
##BUFFER
octet
##standing
country
##only
OXYGEN
squ
##OID
hldev
voc
cxgb
flt
m5
roc
CIR
POLAR
paths
QS
aid
ARP
render
##dmac
##LP
##DOG
usX2Y
pba
ONLINE
dg
af90
##lap
ad714x
##arf
SMSC
X25
ETHER
Cy
ZR
SVC
##LEVEL
aal
pEntry
pase
##564
##pn
##duct
##137
0x3F
ASM
tstate
xoffset
int8
ndr
elt
bytesper
X509
remainder
Select
##resses
pasemi
cbe
aggreg
pit
##Attrib
RED
##LEG
reservation
##umbo
ratr
##Sel
##ofday
##iods
Disable
poid
LNK
##DELAY
##XS
##input
bmd
LOGE
42
UDF
e100
tkey
ty
sndctrlpipe
callchain
wValue
##win
2G
ONENAND
##ODEVICE
Ver
successful
MTR
ak411
increment
chn
##NAM
BK
ipvs
##255
buttons
hip
##FULL
##RIER
ticket
buddy
setp
##COMM
TSI108
##unlock
poke
##98095
produc
##SHUTDOWN
dreq
peripheral
##ense
BASIC
VIS
HDSPM
##bin
cpuinit
##eters
sechdr
ifm
##Width
##uspend
pcx
##inor
##Freq
##OURNAL
##hm
##Local
PRIMARY
90
cksum
0x1a
mgsl
fclk
0x82
ifname
guint
##udc
FSR
gdev
ULONG
exposure
##une
rai
f71
##18xx
##ILY
TCG
##8xx
LOCKED
roundup
##kip
ipaddr
BOUND
reverse
reg0
http
##Back
prm
swizzle
##TD
PLX
evalu
##rates
##IPATH
hfsplus
dws
##ather
##zer
w0
VEC
F2
retri
##VERSION
##alt
High
##uery
Header
cmdbuf
DQ
SetCRT2
IGP
##mtab
I40
osdc
4K
DRAM
##fcpci
MANAG
rpcrdma
GENERAL
BUCK
iport
precv
epc
pDev
rcvd
recur
tracing
JFS
ATTRIBUTE
pHdd
##mpic
vmci
TODEVICE
tlink
pl022
##Copy
L4
SVGA
QUOTA
##unit
115
mcf
logo
provider
bcom
PVR2
##ability
##ponse
CPI
##lympic
iip
Rem
pidx
##MIT
st0
##item
wptr
r5
##322
iflags
##SUPPORT
rsvd
##ongle
xtal
newinfo
ESHUTDOWN
PCC
interfaces
ARB
Test
##see
rotate
data0
##2r
##27x
LK
mps
structure
##NI
ERASE
dwIo
##ood
dwIoBase
serdes
##3S
DECODE
hfcpci
##ATURE
ale
JOURNAL
##ener
VA
GB
reinit
##arning
ERP
gpa
dbf
plist
psp
olympic
##SIX
##82XX
##hf
Mpi
##MOTE
mos7840
IWUSR
VD
ethhdr
CNF
ioar
perror
vert
OFFLINE
macaddr
End
BYPASS
CX23
##150
outbound
##sim
frac
List
0x31
File
UNC
periods
yi
DES
RTMP
glob
XOR
construct
##Sme
prefetch
numer
ControlWrite
SHA
twl6040
OLD
tool
known
##device
revoke
PSM
DAI
##bulkpipe
TTM
bno
700
##oken
##Up
ifreq
VPORT
Param
##tk
lpphy
OOB
COMMIT
dmae
250
##ins
pipenum
ksp
##GT
zSig
rdesc
FBINFO
s2io
QC
##Mult
vmcb
##fpci
ymfpci
##PK
##stick
icm
##ISM
arcmsr
bdp
MONO
##Over
sty
tw32
NETXEN
sff
##x0
0x32
destruct
metap
##DAT
WATCHDOG
##Progress
ucontext
##sity
FRM
pframe
pram
##MPLE
Load
motg
bbt
##602
##TypeDef
INITIATOR
##SIn
##ixp
FIP
pF
otp
breakpoint
##ateg
karg
v0
QLA82XX
##SCCB
0xC0
printed
autofs
wo32
exc
nent
##mmio
ioarcb
slen
0x48
IGNORE
##cam
ar9003
##handle
d40c
secure
VOICE
IP6
HDD
BOOL
##Sh
##Image
uframes
##AniS
ofld
privptr
msec
This
pil
EMSG
dock
osst
DELTA
npe
ibuf
##bort
irqflags
m1
anchor
pipeline
##64x60
unlocked
libip
ahci
printdd
stv090x
HBA
max8997
grh
qn
libipw
atiixp
##orch
blksize
Serial
mkdir
pctldev
BRIGHTNESS
Flash
##PWR
EXPORT
TXQ
##FORM
EXCEPTION
SEEK
##ardown
ioread8
##s8
##5c
charging
##AniSir
mfp
ALLOW
sql
zatm
populate
##mii
R5
ANTENNA
SetCRT2To
iphy
mt9v0
tpc
pwrctrl
##AniSirGlobal
GUEST
tas
##inc
outstanding
ixgbevf
tpAniSirGlobal
##elic
EMSGSIZE
itd
##911x
##RESH
tbuf
rtl92c
FCTL
PTRACE
0x012
##LVL
nump
110
REQU
y2
iocpf
yuv
##OFS
INI
DECLARE
idiag
texts
btcoex
filldir
CYCLE
pl330
SECTION
INLINE
locom
SOLO
age
##region
NM
cert
ELF
##Item
eWLAN
pV
FAMILY
regp
RL
##EST
##inst
vcs
CW
netdevice
ioreq
AFS
ACTIVATE
docptr
shpnt
migrate
##nor
bk
UINT8
##OYO
##mptr
##lib
pxd
hvcs
PVRSRV
loader
ctinfo
##Source
TOMOYO
terminate
SIZEOF
R0
EVENTS
##ql
sha1
##169
erasesize
hwmod
2X
RCTL
##ification
ALPHA
temp2
ERANGE
##hcd
DEVAD
##Process
EVERG
##Timeout
scancode
QUIRK
tracer
IOM
##Obj
sdkp
##ORTEX
spider
##P2
IEC
sdram
ESC
vring
8000
pernet
s5h
##YP
INTF
##skb
EVERGREEN
CDR
incr
acked
WRAP
alen
idd
tmds
filesystem
BUFFERS
TIPC
03
apm
ads
##Target
silence
gnt
LAYER
LABEL
mpsc
eeh
lec
##Tmp
inner
##IdIndex
gfx
pow
gpuobj
QL
DCDC
##Ident
1080
rk
0x25
disabling
account
denom
prefer
occ
rps
fint
##pm
REISER
problem
##les
1ULL
drvr
54
##ont
##Ant
fmode
ps3av
voices
usbip
memsize
mtp
BIN
INFINIPATH
still
MAILBOX
##CCK
casca
GFX
CommandMailbox
sti
##gnum
optname
##41X
HEX
##Regs
ecm
##flash
CFG1
##Stack
##IPHY
##ELIC
reg2
camif
ICE
fpregs
##IOCTL
##aves
ATH6K
##iba
evbit
addresses
EMUL
evaluate
dtd
qstr
cntrl
pKey
PARENT
pmt
placement
##mov
Common
altera
CX2341X
##vt
##ADR
vds
IA32
fiq
##ATING
##ACED
gts
##cn
counts
##fffc
0x001
scheduler
PEER
iif
points
ALWAY
umode
scsih
IFLA
strerror
drc
ATH6KL
lapic
iec
##dict
hsudc
##aset
RID
##V6
POW
ibmvfc
smmu
##ialized
composite
mesg
##tail
tre
pcxhr
Received
DAPM
scroll
##Descriptor
400
differ
dongle
RMW
fail1
teardown
REQUIRE
CIO
ALWAYS
smsc911x
delegation
Exit
palm
##mac100
dqb
tramp
grow
agno
##ICS
##Retry
ftl
##ixel
blockcount
irlmp
VBInfo
adp55
COEF
iinfo
ath79
OU
REISERFS
8192
pSrc
##etime
ef
EREMOTE
tda18271
men
ModeIdIndex
##Arg
CSI
unt
sno
IRQS
mmr
##CTS
##MBUS
##Element
BBP
rmb
regulators
##PF
epcm
pxa2xx
id2
checkpoint
si4
rgd
CURSOR
lsm
affinity
Node
66
ebx
peak
10u
##buffers
lease
mt9p0
OPERAND
isif
##Driver
0xf8
tu
RELOC
curlun
FALLING
ncm
dsc
pstats
SX
##olume
pkg
TRACK
pDM
val32
##MIC
5000
##RC
mpc8xxx
luma
STORE
mlx5
dib00
1U
PLAT
##nlen
dns
targets
adis16
BCN
bmac
named
##IW
##tid
RTSX
OVERFLOW
ISPC
iri
VORTEX
##86a
digi
PLUS
fold
ESTABL
SMI
strtol
##A3
##chunk
TSO
skbs
##DIRECT
ircc
##align
freelist
CRED
unifi
rsize
critical
sechdrs
bitb
SPU
medi
##FLG
rfpath
affs
qcam
buckets
stc
P3d
kiocb
0x2000
gover
##peci
##ROTO
Err
rtn
POSIX
WMAC
GEM
##KILL
bmc
eHAL
##arent
STYPE
SDC
uw
FATTR
PCF
protection
##ARC
ARGS
GRP
book
MSD
Handle
yet
scq
BTREE
##msk
92
errcode
AMPDU
##116x
videom
PM8
edx
WID
##a0
cyc
##CN
passive
gx
p0
Virt
drp
bitbang
##norm
##GA0
PARTIAL
##AMIC
autos
pcim
governor
##ARG
happy
##rim
ROW
##1201
pItem
autop
waiter
Priv
QUAL
EDID
asid
sqp
##lish
Physical
exclusive
ccwdev
##Beacon
pidff
toshiba
Proc
##Frag
adm10
CHI
ivsize
570
coredump
##asas
E8390
RETRIES
0x42
720
SRpnt
regd
cascade
eR
ATI
rt2x00pci
Line
##ITS
Message
0x5fffc
visual
HUB
ND
aup
VDD
Sub
Phy
##rag
isp116x
0x0002
endian
Dis
sht
##so
MVS
tpacpi
Disc
PROGRESS
100000
##Encryption
portnum
dib8000
aip
##CONFIG
smctr
spr
FT1000
csc
e1e
atapi
##kbd
##eries
##URITY
##TON
##verbs
0xffff0000
##Test
FSL
##800000
gdata
defaults
52
##Profile
FSCACHE
FAX
tskim
RSC
obuf
face
##And
##Text
##rint
##ola
megasas
0x34
OSS
changes
##ection
squash
regul
regw
##hdl
w83627
##123
ipipe
##MF
Cap
65
fax
jumbo
96
pcid
MAKE
memmap
37
##UBLE
statfs
scaled
DEN
LEAVE
how
##NODE
pld
gigaset
NOC
EREMOTEIO
field16
At
##Uint
negot
I40E
wide
##loop
isize
##Mod
corr
##SCAN
noin
errs
iod
##ASSOC
##Stop
import
choice
VIRTIO
##BSS
nan
icom
DYNAMIC
regnum
GU
CLEAN
ECONNRESET
##0828
bog
##ru
multiplier
vidq
##high
argument
MAC80211
cmip
errp
CONSOLE
bustype
EDAC
A2
DUM
gfc
azf3
azf3328
OWNER
##ope
contents
pixfmt
0xaa
##cf
Output
i825
##ocity
coalesc
isi
odd
##inator
truesize
through
MULTIP
##CED
algorithm
caddr
ALC
LOWER
four
VMX
BUFSIZE
##Cb
B20
epoch
##SQ
##flate
##PRINTK
forced
ENODATA
EXT2
lpar
pRSN
xiocb
mim
##MAN
Input
bmdma
USR
W837
TXC
xlate
SECURITY
##a2
INDICATION
##EXP
rtp
##417
EOF
TSP
##Prot
##ADATA
BMASK
##STEP
##VE
uverbs
ccr
persistent
LBS
maple
##mgr
ORIG
uvd
Last
byBB
wLength
DEVID
XA
##front
coal
bread
##427
STps
ppr
fnode
candidate
superio
INTERL
cs4231
##Temp
cbarg
TPM
xe
cut
acct
##DEN
##EMENT
creg
OVERRIDE
SDMA
##MSK
qpti
eg
WQE
##CX
##resp
san
manufacturer
CALLBACK
zalloc
exclude
LPT
ADJUST
BAM
88
vmbus
##848
##RY
##uccess
light
abx500
VERT
nnode
during
SPK
fas216
optim
new1
##MacAddr
ehdr
##gt
GENERIC
##xattr
WDA
TUL
H264
##exec
PMIC
refill
sdh
mfn
strstr
extr
x0
##UTEX
CsrW
##ETO
##Uptodate
du
##istic
SETTING
MAX89
gpiochip
##epth
producer
P3d4
SAV
missed
jl
UNB
##urbo
FST
gn
pc87
PDBG
fun
##PM
scsw
##1111
msnd
contrast
unsol
docg
##2k
silent
hwa
##S1
RXON
sns
RTLLIB
ESS
OUTREG
pbp
train
DWC3
dwc2
##Loop
##Coex
FIMC
keyidx
##fsoc
sirfsoc
style
cl45
S3C64
lksb
scd
sm501
ATAPI
HIST
dma2
maxdata
0x00FF
kbdev
##flt
##vice
MCB
##1737
##xd
COMPRESS
##oder
bdata
##seek
ROT
DEBUG2
pnetwork
ANI
##struct
RTM
surf
rpi
cytt
cyttsp
##FYI
plt
##UTTON
fl4
TMP
##mon
##ela
##COL
metapage
##build
msgout
ECHO
osk
Mic
0x23
LA
DELETE
underflow
POLARITY
chained
afinfo
##XD
CPUS
RSN
raw3270
INSERT
##net3
amb
EXTERNAL
LPP
atl1e
##ESG
deleted
A3
pgdat
envp
pathname
REG0
noinline
EVP
##sure
##iot
KILL
newsk
ks88
cda
eni
congest
5GHZ
CORR
GPC
##hpi
riva
prAdapter
##ONFIG
##ilog
caching
LBA
PTD
signo
squashfs
##Use
performance
BNX2FC
fbc
tso
TUNE
alarms
SLOW
##alloon
kctx
cardp
WIDE
##MULTI
colorspace
rtm
bchannel
EEC
PCIX
LW
SetPage
##PAD
vtotal
##NodeIndex
interl
STM
0x1ff
##485
velocity
TCR
##AID
pagev
initio
HCF
##col
USED
associate
eisa
pwwn
shortname
smack
Wr
zcrypt
zm
dsa
##AGC
rj
##IEW
##nm
respond
ida
flexcop
hfcs
swp
##ARK
##63xx
DUMPREG
icu
AB8500
cp0
UNDER
htotal
##dmx
##ALANCE
compression
dvbdmx
I365
##arb
Curr
ZONE
DEACT
kva
without
R128
##OPS
##168
##Reply
shar
HSYNC
symbols
##INO
wan
##13XX
##DY
ibs
wm97xx
Unexpected
been
IFREG
Blink
es1
mpath
lnet
rsn
pm8058
identity
ena
ltvRecord
resolve
GMAC
##rip
bytesperline
##Flash2x
because
vgabase
##alle
DEVICES
##avor
B0
cmipci
dsr
facilities
u2
lola
mhba
##engine
resultp1
0x33
LAPB
da9052
MAT
lenp
##Setup
eec
axis
##QUAL
FRAMES
##HA
aiptek
mfs
stations
##Fail
pirq
##eb
ape
Switch
UNSUPPORT
getp
Gtk
##IRECTION
##IDX
VISUAL
cio
##vsc
lw
cbc
git
gran
##psl
##FAIL
follow
##TAG
typeof
##tf
ddata
rtl8169
##Indication
nodelist
eaddr
##IRECTIONAL
processing
##UGE
TGT
##Lram
PREAM
spawn
##chk
IEC958
##HD
vref
ccm
##SZ
tmem
IOP13XX
rtl8180
WOL
Total
dtim
asihpi
apicid
LATENCY
SPLIT
cmdq
futex
##Threshold
##etry
workspace
implement
UI
fsync
reg16
ihl
SGI
dpram
##T1
chksum
##ither
##OND
initialization
WRT
Al
##gname
flock
pda
NETLINK
BIDIRECTIONAL
msghdr
MWL8
MWL8K
odev
tlen
##221
NVDEV
i8042
##evt
Function
live
cFYI
pI4
nseg
omap4
vou
##Inst
TAIL
lirc
##Ack
sa1111
##5416
mcd
TIOC
##VO
parents
##Complete
overlap
S16
##Wait
inq
##6aa
##UMA
hclk
pcd
HFILL
mdl
uintptr
herm
throttle
CNIC
vdso
##iout
ibmp
##PLUG
icv
summary
KEEP
jr
##VGA
fld
PCX
ascb
DOUBLE
R2
##R1
SHAD
falc
ACCEL
##PPER
##wrap
Z85
clkdiv
##80x
iclog
altern
net2272
CsrUint
es18xx
newval
FACT
myri
cdc
SAB
ds27
mxr
SELF
lsap
##dio
ringbuffer
CAPABLE
MKDEV
trying
IFB
JACK
sto
##ACTION
Flag
mlc
tempax
undo
MOVE
##avail
FIMV
##rigger
0x3d
##aced
unm
buf1
exofs
UNSUPPORTED
SNAP
scaling
EHCI
SUBD
tio
##105
due
flg
##ym
mousedev
Lock
pData
##INTR
hcp
psz
PortOffset
sil
##RIC
##iation
llcp
abe
ocmem
I2O
0x26
klist
Table
gettimeofday
rank
sighand
ipp
VFS
##btc
IIR
DBGLVL
psw
##IVO
##e0
##reser
rcode
##Period
here
rmd
lebs
encap
PREAMBLE
ASY
##ARGE
0x61
DIB
apert
BA0
xh
pbpctl
kcb
##ons
dmam
phr
##912
SAT
##720
##ORB
##ibes
##403
Sync
Si
SCAL
##Ep
LG
Stat
PS2
##FSR
bclk
gint
ecb
ip4
sdtr
r2t
weak
##std
sregs
##HOST
dib3000
##352
JS
xa
##onet
bRequestType
SHOW
AGG
EXTRA
fwstate
qctrl
ABORTED
dac33
A0
l4proto
##OTT
##handled
indx
WM8904
hca
realm
mac80211
##READY
Play
##353
S3C64XX
flp
GPR
decim
##Csr
epos
cnf
AFFS
cachefiles
quad
ALGO
STARTED
##power
##SSL
ECRYPT
headers
cntrs
rkey
pm860x
extractFloat
LPPHY
##AUT
UNS
nor
##6110
DISCARD
abfd
UID
##YTE
0x0003
PUSH
iftype
elsa
TMD
##Buff
TRAIN
illegal
srcu
ECRYPTFS
##ycle
icp
MDSS
ist
##CODE
##lyph
isert
detection
cphy
##953
HostCmd
msc
raise
RECEIVE
EPIPE
dpi
##b35
cputime
pwc
##Irq
##8522
##Min
GDB
nexthdr
EAP
tmpbuf
##Product
##recs
eqe
ipz
irlan
##insn
##dl
syst
##irect
FLO
distance
mdf
MORE
##BI
##alling
##BER
icr
AVIVO
dissect
AZ
BUTTON
BAP
##sens
ppsc
n1
allocator
cast
##drm
datagram
lck
##packet
sdioh
##IFIEX
MWIFIEX
##LEGAL
##uing
ifbp
tak
visible
vfsmount
pct
##params
##ni
EXTR
fwu
dataoff
##env
EPROTO
side
WM8993
##Bt
devfreq
##owner
ELEMENT
pwrb
ql4
rotation
ocrdma
ILLEGAL
Default
dcbnl
EW
MAD
hnd
max8998
sj
deadline
##adl
0U
GD
VMODE
oui
MU
##edev
##INED
dmm
vml
steps
##rocode
##ORDER
##Oper
##isac
##lation
OPS
ESTABLISHED
atr
rar
ULPI
COOK
unset
##ground
cfqg
jiffy
sharpsl
##Long
HFCPCI
tdma
snoop
User
##RECTION
##bar
ADP
coexist
LCSR
CHNL
cidx
neighbour
status2
UNIC
cic
##ility
OPL3
adpt
tiq
##auge
port1
bogus
WCD9
NATIVE
ur
multiout
##zen
##eal
wow
flctl
tdls
10G
##6xx
pg0
pHal
gcm
s5k6aa
ROUTE
##etable
##818
##codec
EFF
NA
ISAR
hx
neighbor
Next
pvec
sqlite
m3
WCD9XXX
bufp
prv
daio
Per
residue
##itional
##882
lgs8
asn1
ca0
miscdev
##ORBELL
perms
ici
##204
msgq
txn
i7
cee
##vid
##STOP
FAC
##cur
AVERROR
Z8536
alrm
obs
Inc
UPPER
bla
i1480
sie
yp
TIMESTAMP
idc
eng
IPMI
##REACH
OFS
CTA
##Sec
rproc
##CACHE
1L
pPacket
CTRL0
lists
ioctx
OVERLAY
crisv
MIM
bcm63xx
##7006
UNI
80211
NLMSG
tregs
##Des
srpt
xo
filled
##8300
parsed
listener
hermes
##938
fpc
##diff
seqid
##ccr
##Line
Map
sbuf
##REC
##this
KDB
pads
drivers
om
SRP
clos
##va
tvnorm
##blks
dtmf
POSITION
##prio
##MIN
instant
CIF
EDC
##IPH
HFA38
zones
##vibes
sonicvibes
##REGS
ima
ov76
floor
ENOTTY
adt74
json
LCN
##BYTE
trk
enh
shader
nmk
acorn
ras
passed
halbtc
schem
0x0004
tcphdr
igbvf
micro
##pa
ue
matroxfb
RCU
dbl
into
sparse
##InProgress
##CHANGE
ucp
##Parameters
BOTH
il4965
sigaction
WQ
pm2
##ipe
##FUL
T4
##LIGHT
pHddCtx
As
NOR
##Group
##301
sda
MOV
lblk
tca
NMI
THERMAL
CPIA2
HFA384X
genpd
##ini
txrx
snmp
gdp
tspp
brok
PNG
##S2
##323
DPMS
POLLIN
ki
ht40
TABLA
protected
evo
##poll
hsi
##Func
##EXEC
TRB
##Window
BMSR
CANCEL
latch
##izer
RT56
MACv
average
USAGE
span
##m1
ptype
mono
##ISA
##Ts
##header
S0
umem
65536
tce
##A0
umc
DISCOVER
MST
##keys
coord
REP
INFR
hooks
joydev
##rase
fasync
advance
bas
##dc
pagevec
##819
8xxx
##Last
msgbuf
resetting
##CLR
fcr
CHARGE
##oul
monc
indic
NIG
##rtc
##Left
U300
0x84
uninitialized
##getlb
##oose
##vcc
strlcat
##ENSION
INITIALIZED
xri
txbuf
Reserved
ipt
##996
nore
##ighb
lip
METADATA
MDDI
supports
GIGA
##Hi
BATTER
espi
##e1
iec958
0x300
##SInfo
rt2500
ndo
csp
##going
requeue
32BIT
ecard
##oin
##d0
kms
Media
##EEDED
ALLMULTI
##4b
##ndx
sdu
USEC
BLINK
routes
subR
finger
MCU
ignoring
Warning
wl3501
deh
ccc
D3
og
ICE1712
LINKED
jd
hdata
INSTR
blkbits
PRESS
##licate
##cii
##fire
UART0
DISPC
hugetlb
startblock
tblk
mbuf
##rog
##vey
PASSIVE
##ANG
TSI148
BATTERY
ARE
fib6
GPU
aExp
uri
##msrl
avm
##QUOTA
amixer
SUSPENDED
qce
lab
ALI
GOTO
m68
mt9m111
endpoints
meminfo
ISS
turbo
outpd
##feed
calibrate
caches
pHdr
dsize
Mult
System
EFUSE
BCME
##imap
##EW
iomux
PCXHR
##rozen
SMPS
regaddr
irsp
etr
restri
##397
boards
flen
AUTOC
dmasound
pep
lpa
##ACR
##Payload
Entry
##CAP
JO
hifn
doi
IXP4XX
e820
setattr
rmw
tiling
pfx
QE
dbdma
Try
kpad
zram
cir
isd
##ports
MFI
Sign
##111sf
mxl111sf
##MID
##Ie
ad1
##10K
eeepc
fintek
##BAR
##71x
##YV
##ccb
SNDCTL
qxl
mboxq
bde
##ULSE
usbatm
0x0C
TLS
regulatory
DCT
fhp
ehi
SIMPLE
##acter
WM97
##ereg
mini
##Ok
devt
fwd
hyst
GART
unwind
qsee
##depth
bf5
##Diff
Pack
IDI
ad7
usba
functionality
MHz
rxdesc
HOLD
##PROT
##565
psec
au0828
rte
##Mgr
NEEDED
spear
txc
rt6i
tsb
##dle
esd
unpin
vmxnet3
tssi
Part1
virtbase
pagesize
neo
##Total
##aring
Mask
WDIOC
Part1Port
domains
##bno
BATT
##49
COMB
stv0367
ARC
Detect
ets
title
ALU
nlmsghdr
pes
##ALIGN
##aged
##conn
dstptr
workers
inta
CX23885
IRCOMM
elif
quick
70
##ighbor
bSig
##852
sun4c
permission
##specs
##ritems
##LR
aer
cmb
##sport
pgtable
##boolean
2057
SECONDARY
##ensor
fmdev
fop
##DISC
KR
##32xx
##ah
msgin
PERIODIC
i1
##626
MD5
pairwise
pdn
dlthis
OSC
STAGE
nritems
##spr
bau
##DeviceInfo
ISOC
e500
##MMC
##x2
operands
EHEA
pHalData
stuff
##OUSE
##Ed
usb2
q6asm
MBHC
Del
error1
TXX
txt
##ubus
cr0
PRAMDAC
tempcx
Rev
TDA100
inversion
roll
##ILING
##08x
rcvbuf
ds130
dcbx
##Hdd
MHZ
0x64
pinned
0x3ff
filters
VSS
PKEY
9600
mcu
sset
SETFIELD
hvsi
MMAP
sysdev
HOR
bli
CUST
MISS
activity
il3945
Hard
inbound
##DLS
ADMA
fourcc
##x80
ifnum
rwlock
INB
autocfg
go7007
gma
scanned
jit
hcon
INTEN
nvbo
##Configuration
expander
chsc
MCH
##HEAD
dirt
##6953
udbg
TFM
r32
srr
Timing
cnow
QPNP
pktgen
HARDWARE
##803
##vals
0x0008
##32XX
XS
##ablish
HEL
gdt
rdc
##rea
pl08x
pck
##CONNECT
isol
ACTIV
nci
bbb
fsize
S390
p80211
a3
cec
##89x
##Bm
hwaddr
subscri
gser
##Disable
##osen
cbuf
m32
SURF
##3130
CLOSED
TGA
error0
portal
acqui
alm
##lave
status1
nubus
btamp
##Pending
MODUL
SISSR
3D
standby
Audio
modrm
widgets
##bias
ftr
ATH5K
BT848
##RDY
##rdup
0x2c
##tents
##MU
##Me
##MON
MLME
prompt
HFSPLUS
crisv32
DEFER
MAPPED
QPT
plogi
##3xxx
cpuset
##gi
0x29
##sight
pCh
##IRC
ecx
ifaddr
tifm
pools
##SX
chap
##idia
fdc
##Ip
0x27
PEL
border
##ernel
##mtd
##src
writable
ENOIOCTL
htab
ENOIOCTLCMD
##10ge
myri10ge
dce
vsi
i2400mu
wext
outputs
##esafb
lseg
MCP
PAY
##reserve
VBLANK
##PATH
scsi3
Odm
##Field
pai
NSEC
probes
ocp
A1
trailer
nbd
ucm
scl
##CMSR
closure
prd
##850
expiry
NVREG
SDLA
RTA
##siocb
hwwrite
##jet
oif
xce
83xx
ZM
umac
ioas
LPC32XX
##NK
defrag
##ensity
ptlrpc
sliced
Desc
##8250
MIMO
ad1843
FCF
pxa3xx
##WIN
capa
##loaded
nfsi
##cision
amap
##Dir
oo
##wood
LARGE
calls
##lete
cryptd
LUT
##OBUF
VL
hdp
##Par
creds
##aweth
Process
codes
tclass
NCP
reload
##ISOR
FSF
VCLK
monspecs
fromio
lpc32xx
ibmphp
Stop
DOORBELL
VPD
frms
modules
usp
pgm
kaweth
fbinfo
##stop
##Ht
xon
flags2
pktlen
##EG
byname
##520
at76
answ
hal2
HIFN
fbops
krb
##Statistic
dcon
reconnect
mdc800
nbits
COOKIE
EI
inftl
mts
FX
tiqn
nsect
##view
fcc
##Part
linesize
##SPEED
idata
WT
##ONENT
tls
quiet
admin
fail2
tc63
EA
polled
fq
I8
ASSIGN
QUEUED
rej
MSEL
cmac
##KeyIndex
vip
pBSSList
META
docg3
DD
lbtf
nvc0
cores
##Hash
broken
sitar
pxmitpriv
DEVCTL
AR9170
65535
FDC
##lck
##88e
omap3isp
Scan
##13783
BRG
intercept
Volume
olpc
5g
vdec
kal
##sleep
gpadc
pcnet
GSS
EADDR
dsd
closing
usc
nib
wolopts
don
tspi
XB
ctls
fragments
bfqq
cong
IH
##PROBE
VBUS
pod
log2
##CRC
apple
ca0106
QPS
SRB
gphy
##eed
imask
##FREE
bps
ray
##UCV
stripes
nvidia
##2char
##PAIR
Playback
dmic
GPMC
##PRINTF
outlen
immediate
##Limit
uar
MUL
##sib
##DFC
application
ACE
jp
PERM
0x54
oval
##losure
sdebug
##arams
pcf50633
debo
NAM
pSMBr
PLD
aaa
Private
NREV
pval
##vs
##245
0x83
EXPI
##815
gro
CHSPEC
DESTR
##ivity
ipv6hdr
##NAMSIZ
##Flow
##7316
PMAC
mif
##Client
vwrq
p3
fs32
SMUX
##alive
TRC
dbuf
Update
wat
symtab
rdp
kstrtoul
RCVD
##4938
cfc
MX31
leader
EAR
pata
##ited
0xFF00
Trans
out8
IFNAMSIZ
QCE
BALANCE
CFS
wstats
rescan
##SuppRates
sqlite3
##All
wlen
##ron
pressure
AK411
apb
##risc
that
PLUG
87
M66592
##Sw
DFP
AAC
puc
CMDR
##c4
Over
##AIT
tps65910
##CRDMA
##OSURE
mt9t0
denominator
cpld
decompress
##armin
pfkey
nof
##OCAL
esw
GBE
filep
WM2200
##intf
E1
SEP
##fffffff
a4
Prot
hHdd
##exact
probed
##pix
issued
kwqe
MTRR
ITER
##5G
strcase
laptop
usable
psli
##318
##6110x
pbus
garmin
AFMT
itt
tests
itc
125
MMD
##fir
64BIT
COD
##Vendor
##9081
##mx
au1
PLCI
##Div
##444
userspace
xx
##190
url
slb
runlist
ERRORS
OVERRUN
S1
SFP
xceiv
##Channels
busid
##IFIED
cpy
copper
PAYLOAD
SROM
cbFrame
2g
##OAD
sigframe
SEQU
thisboard
##band
##v2
fsdata
frozen
emux
ASSOCI
referenc
stu
tss
##113
##IFIER
cu
mmci
##idata
remov
agf
##ESHOT
vecs
ppt
MCE
dwarf
MQ
##change
##agn
FILL
PAP
SPORT
VFL
Internal
lockname
lux
##ior
registry
##Pixel
##Debug
##leave
arbit
##Parameter
##VF
speaker
fprs
IRUSR
DIN
16BIT
44100
##uda
sshdr
mcdi
tpr
##usp
hDevice
##GING
reada
GUARD
orb
et1
consumed
##EXCEPTION
emu1010
DPR
##804
vdma
iga
enabling
uni2char
und
sources
##Action
gatt
NAK
pebs
tda82
doesn
##Ac
##Lo
totlen
nldr
fusion
##msvc
mdfld
##abuf
pmx
rcvctrlpipe
Version
pmbox
closed
carry
##fork
wrapper
Mi
##GI
MODIFY
Open
fout
readonly
CLKDIV
krb5
VIDEOBUF
##ular
mcspi
zr360
Stream
resend
##x6
firm
Sec
ONESHOT
LEB
SGL
ADM8211
pmbus
NvReg
uA
##DWORD
dbgfs
password
chains
##alled
vhci
uts
##Inc
APCI3
##osition
TERMIN
##GLE
bInterfaceNumber
errmsg
OUTB
##ermark
vports
KK
MAXLEN
gLim
psm
sba
120
gelic
mt352
DUAL
broad
##SB
ngpio
HCA
minix
0x1d
##Vol
TVP
priv2
verbs
wday
##sys
##rout
genlmsg
##911
devres
ipb
USART
USBH
microcode
ghes
strcasecmp
wds
partid
##Trace
CH0
##ITER
##ways
sdiodev
FORE
TRY
pstate
DMESG
alps
BMAP
SIM
mru
HST
savage
ACX
vote
cum
wbs
SEGMENT
KEYS
Configuration
cipso
0x78
UNMAP
##5150
##txt
BFIN
F1
binary
CAPS
CARM
MANAGEMENT
hpp
LPA
DSC
##90p
##ade
##words
sh77
ARCMSR
ene
alx
v9ses
##siz
##race
0x0010
##DISP
mhp
PREPARE
TDLS
##uner
ddd
##mitted
outpdw
bonding
##Attr
emu10k1x
##Call
##S0
##idle
hsize
VENC
zport
dib0090
mlock
TST
vsel
suc
netfs
sockets
##vga
mld
##client
kn
dll
##2X
##mmac
##234
##eye
sgi
tnapi
ibmr
##ILE
idProduct
id1
##50221
S3C2412
HT40
fck
softirq
sgt
rctl
writ
##fy
EXIST
software
hwsim
orion5x
spos
vict
headlen
stmmac
Abort
tnode
PAIR
elsiocb
nft
sattr
fpr
clen
101
audpp
s5k4
FLOAT
TMF
ovfl
EXYNOS4
instantiate
preferred
rhp
frmr
line6pcm
##anced
indices
encrypted
grps
sysv
w100
meye
LINE6
igmp
##GROUP
PDE
math
dbus
Sta
strnlen
preview
fsa
mess
jtag
OTP
atp
zf
pao
chipco
##Neighbor
RME96
WAITING
##inf
staging
setsock
SUR
##FIL
vt8500
dur
##araid
ip32
megaraid
68
##iop
hcb
nlen
##KID
SHADOW
PSW
aha
Got
bcb
posted
Slot
ab3100
dmat
##SEGV
Done
tiocm
subtree
byPkt
##Range
going
Ap
RTL818
cmdlist
LEAF
TSENS
##atio
bmi
Aut
stm
authent
##596
setsockopt
UCC
cool
sdb
ppc4xx
##INDEX
APPEND
SPIDER
##Cache
PSEUD
defs
RECL
pMod
ke
GIC
nod
BACKLIGHT
NOIO
Interface
kterm
pU
pullup
rtl8723
nval
##allel
BCSR
swim
relocation
encryption
##OON
OMAP4
##Sp
fls
##CIAL
UNIX
TPS65
fit
##8921
omap24xx
cleaned
creq
currSCCB
mpdu
##next
WM8996
oldest
notes
wMax
inputdev
##Ds
##713
vx6953
##ISAC
iwlagn
dataptr
##elow
memtype
SDVO
##for
physaddr
emb
hpa
annot
Name
##zone
BRCMF
##cv
##HST
pwd
t3c
##Sc
grub
msrs
##bss
optarg
WORDS
MCBSP
SIGSEGV
wak
clksrc
INDIRECT
##yro
##ETYPE
##ae
dib9000
ascii
dtype
ipd
CLS
##MY
PULSE
ENOTSUPP
zlib
UNDEF
oldval
##Chan
au1000
cbq
airo
##rease
MODNAME
CHIPC
sun4v
zp
tgid
pstr
mdt
##trans
symname
ENCODING
OMAP2
Ac
debounce
wlfc
TargetID
acornscsi
existing
##C1
SCOPE
virtqueue
regk
##1280
aperture
FRF
##qual
identifier
pss
segbuf
softmac
##EVENT
ili
480
SLOTS
clips
GI
MIG
CS8
IMP
dmacHw
WL1271
mbase
vlog
INREG
INFRA
tnc
##BUILD
TPC
OMAP3430
DIRECTION
ek
fsr
relocs
##Fir
uartclk
ACR
ACB
choose
##licit
IOMEM
SUCCESSFUL
spufs
kmemdup
shp
mbc
DESTROY
##asing
dhcp
##iSax
##label
SID
resident
suff
RATIO
UCHAR
chandef
cpspec
##iated
##e8
##command
irt
##ips
SetRegAND
MANUF
videomode
classes
wps
##UFF
watermark
mcam
et131x
Dev
##gle
blksz
srom
sizeimage
dma1
r128
##86x
SPECIAL
vcm
nodename
NP
STANDARD
##iga
sonypi
spca
0xFE
##OKE
sdc
##8x0
##9420
##355
ar9170
0x0200
ROAM
crp
GPIOF
MEN
rip
##mission
phone
RJ
##ipher
##eve
apps
ez
Rf
SMD
1X
SDP
pSession
##Default
ID1
##Extension
SHA1
CHA
undec
ga
depen
##elaus
HRTIMER
##DNORM
pTable
##IFICATION
pty
TRANSMIT
##kd
ROSE
sendctrl
mask1
##888
suffix
SMALL
EMIT
kvec
geth
NIU
iag
sharp
tagged
DISCONNECTED
HiSax
##HALF
CCB
##Slot
NLM
MN
at32
numerator
overhead
##1b
reqq
ocr
mqe
##INTERRUPT
handles
texture
cmdp
FSB
150
##5g
RDWR
wm8400
bitrates
epi
victim
gchar
ks8695
pluto
INTA
xpt
iobuf
##issa
ADT74
usblp
hcr
jmp
fdb
menelaus
lpf
RESOURCES
keepalive
EINT
hdq
vmap
##Domain
Pre
clin
##s2
##AUGE
releases
spurious
stac92
u8g
alignmask
float32
##OSUPP
emp
UH
QUEUES
delalloc
locomo
BRD
RESERVE
robj
mhi
##hase
VB2
8BIT
LZ
attent
adi
nq
answer
GOT
stl
elen
s0
elev
hcpriv
##610
##iger
tsap
1ull
l2t
aggregator
wall
##Need
CUSTOM
##hub
bufferSize
Rate
##alse
reported
Use
##raw
jpg
WSS
##Ent
1080P
retrans
BCLK
##track
NOD
collisions
PLANE
m68k
bbm
32768
ifidx
##Ag
DIFF
RESOL
WRITE32
tal
##ritten
OE
##rection
FPSCR
mfspr
actor
gains
##droid
0xb0
msm8x
##897
##OSUPPORT
lv1
inexact
wmem
APCI3120
nexus
QUAD
CONTROLLER
pSta
initializing
LATCH
roi
lp55
##C2
IWM
yy
IGB
61
ufshcd
anc
fcpim
WI
##ription
LQ
UInt
##uce
pusb
history
TXX9
obt
vsp
##B1
##irkwood
bcc
Gst
##uper
APM
publ
mimo
FREQU
estim
##Information
rrpriv
mout
steer
avio
##dst
resultp2
ctor
FACTOR
##AUTH
svga
##02d
secret
##QUOT
MEDIUM
##llegal
aspm
rxdes
##ANS
dhdp
FWSTATS
CQP
##reamble
stable
s3c64
##olcd
cppi
##IVED
MHL
startoff
mixart
7322
reap
pModal
##ars
Object
xad
##ecc
##thru
Packet1
##Clear
zoran
bNum
Intr
QM
cmpx
IUCV
bdb
##93xb
registering
recent
phyaddr
gdbarch
SUP
fcb
COEX
EL3
smsc9420
Ndis802
determ
4d
##RSN
ssids
##sam
AR92
llist
##color
kirkwood
tracking
NGX
hib
CONDITION
R200
stype
dme
LOGICAL
receiver
signr
profiles
glyph
i3
##groups
RPORT
concat
tc6393xb
blkg
SMBHST
tda1004x
w90p
w90p910
##NS
hstate
##iov
##1X
0x0A
amiga
BREAKPOINT
RTN
DBUG
hidden
##lt
##UNE
##roxy
##CMR
SIGNATURE
emulated
bcsp
atombios
sessions
sysrq
whichfork
ION
parisc
PSMOUSE
##ename
upcall
authenc
hue
##ADB
oe
stored
PLATFORM
allocating
L2TP
##Zero
ctrlrequest
53
wt
##pid
btrfsic
adm8211
tin
##ral
outbox
toio
##pcap
##zy
always
ISC
rotator
CPLD
KW
claw
R3
elevator
##RSSI
hashbin
onyx
destid
EXPOSURE
##UGH
pportdata
BTFIX
POWERDOWN
KS8695
2D
##CHANNEL
caif
TRUNC
dz
TOOL
pms
##VL
indent
Master
##BPP
RNG
secattr
800
addrconf
exynos4
VCC
dflt
ble
isp17
##OOK
cpfile
##Support
rcvhdr
##mhz
tul
hsm
##alib
32bit
vnet
ar93
RTX
##address
mv64x60
##Eth
vfe32
##422
tps65912
Auth
mi2s
loading
0x7fff
lgdt
MUTEX
clineno
userbuf
Create
##ATIVE
msd
inclu
cfpkt
##Peer
at91sam
##1x00
DFL
ilog
upa
##8821
regcache
lldd
##RM
##offs
icmp6
vfebase
D2
L0
cold
tailroom
##from
10baseT
##ribble
cmpxchg
##eap
ccmp
falcbase
idp
delivery
##allen
TRANSACTION
Hw
unblock
skcipher
##apsd
unmapped
MCA
QDIO
DA9052
dcs
vctrl
lsc
First
OHCI1394
##cogn
CONTR
ipac
tsens
ppb
##lane
GRC
gboolean
working
autopm
CommonCfg
rOFDM0
p15
memslot
pstClassifier
##olicy
##hot
##252
pohm
pohmel
ssn
Tuner
##ENB
qseecom
modedb
scribble
tokens
MACE
meal
parallel
mch
##user
UNINTERRUPT
UNINTERRUPTIBLE
##ific
memstick
SPRINTF
rop
##1040
##Short
##rypto
##2xxx
ac97cr
iosapic
g2d
D11
##pll
##A5
##ENSE
##mgmt
pevent
voltdm
##200x
##Tbl
E3
ANN
pohmelfs
sigcontext
nentries
##Down
hmp
book3s
ctcm
pvr
##ffffff
archdata
FATTR4
##Rout
WRONG
ldt
lstate
addrlen
psFlash2x
sop
PPS
balloon
flavor
LEAD
Sc
eCSR
##BW
uNodeIndex
locate
##887
FRONT
GRE
DEACTIVATE
CLPAIR
cciss
aSign
kregs
lgdt330
DIGEST
ichdev
pStatistic
chid
LOGIN
adie
##3215
NFP
dqi
HOTPLUG
dstat
##SIST
mlxsw
ktermios
##PacketSize
DESCR
SIOCGIW
##drome
##395
smtc
EBADF
##ven
KBUILD
copp
backref
etherdev
HFA384x
cropcap
SPIN
DBGPRINT
T2
opal
h264
##pwr
skipping
sai
##acing
Net
tctx
##121
##VOL
ml403
YU
dto
TSF
Illegal
##Used
##allenge
pers
lvcc
##550
might
##Drive
tx4939
DAY
filt
##Coexist
oops
0x35
pump
asb
resizer
##Thread
PS3AV
##eature
##aj
##eline
##comb
MLX
ifmgd
hfcsx
Please
IOAT
s5h14
qbh
aci
REG1
##ENTER
##Function
APPL
nego
tc3589x
TXCSR
schid
deref
SYSCLK
##NM
##Report
##RATION
wm8904
relative
lnk
315
released
hme
INTERLACED
##3f
zeroed
##3X
0x36
muic
w32
phyreg
##ano
sfi
dwords
until
sdesc
DRIVE
##lat
SIGB
ethernet
movq
UNPACK
fclose
skipped
##COLOR
##range
##apriv
srmmu
RAND
hil
passt
100baseT
eRFP
##qspi
CMOS
gps
dib3000mc
SPUR
##1400
qla2xxx
DIST
TOS
portdata
FID
VCO
##SER
ENV
pick
GID
strsep
SIGBUS
establish
even
op1
BOND
able
##segv
PPI
sigsegv
exact
charset
##AKE
##rit
##ransmitKey
##uet
ven
##L1
mdiobus
mctx
##NTRL
CARRIER
tfo
CABLE
middle
Auto
1G
POLLR
46
##sense
esi
XTAL
tulip
##9005
BRCMS
thre
##logic
##uming
##egas
byPktType
sglen
fibh
MPT2
obtain
oth
HCD
GEN6
ratelimited
CONFIGURATION
ndis
cpq
pnx
##620
##syms
gnttab
newsize
UNSET
serial8250
##scl
AREA
WOW
EOS
DFLAG
0xfa
DX
WNI
IFS
GH
##TLS
atalk
iBuf
GetReg
igp
MGSL
dwrq
Elf32
EROFS
0x47
##POS
tpa
##OGI
##sco
Debug
##ergy
mEp
FAD
adv71
MGN
##chans
duplicate
ents
RBIOS
##cale
irqd
rta
HAUPP
android
##UOUS
ovs
buf2
Local
Hardware
kre
##Save
UPT
##pcode
PORT2
omap1
nbr
committed
##phone
JOIN
cxio
zer
O2
##IQ
fpscr
ispif
##names
mixers
deve
##CF
coredev
##gx
##rics
NOISE
OVR
qw
finalize
gemini
M2
ioread16
tcd
##8111
P54
cfh
##Band
ctlx
bpc
hsmmc
ETIME
nlmsvc
##Tab
TFLAG
mtspr
sensit
eHal
rnc
##ada
##93XX
facts
EDMA
pdrv
EP93XX
##EUN
eHalStatus
WIPHY
preload
msm89
oobsize
attn
qed
IFL
lgs8g
##rary
successfully
Back
##OUNCE
Head
qla1280
HAUPPAUGE
dme1737
##98088
mdp3
ASD
mtk
PERIPH
##tls
##onitor
rdy
chosen
vlc
41
##DSP
uiS
##SHIFT
impl
regwrite
##eneric
##fh
intstat
MICRO
algs
##alance
##ACC
P3
FLT
lov
chipc
ksz
MACHINE
i64
##5C
##UPTED
PPR
host1x
nvs
##5642
D40
ldlm
coh
blade
atomic64
CFG0
stale
UNICAST
bLed
threaded
##ropy
pmtu
hcall
##SYSTEM
##icks
COMPONENT
wwpn
##mrvl
tuplehash
##R2
DMI
pcnet32
q1
RTPRINT
DECRYPT
##nv
tov
LANG
##IDEO
IEEE802154
hob
##1688
tpl
kstat
remapped
sma
BUFS
pginfo
syndrome
tpi
##ENUM
pc300
##955
CRT1
baddr
AVM
##DOC
IRLAN
cx234
nsecs
##LCK
resub
DISCOVERY
EQUAL
MDL
bcmerror
TSR
##urred
##frags
CMDID
##eet
bth
NFSD
IBMV
FAB
##elock
##Intf
automute
UNBLANK
ch1
ICS
destructor
sampling
##IPW
##rng
nip
45
highmem
sufile
mox
nftl
dcmd
metric
##WP
GSC
##EventData
MANUAL
0f
VIEW
##1211
##CONTROL
##Sv
Rep
POLLRDNORM
##IER
hangup
OFFS
EBT
##try
##ALLE
spca50
nonblock
##2g
padata
lseq
##680
##arer
pds
Hz
##WPA
val8
tfd
qmi
0x020
thislen
V3
DDB
msq
##ADED
deq
star
##inx
histo
##erial
##ODER
rdmsr
intel8x0
##ISH
IOMUX
##INTER
src1
feedback
both
conversion
##1550
OPENSSL
CDROM
srcs
##395x
##bb
prime
modifier
smdk
Connect
dmxdevfilter
r7
SRQ
MIP
##bm
sham
##EREG
unhandled
srci
##ot11f
dmaengine
tfile
##DLE
VNSv
tdata
compile
##Ap
incorrect
##lX
##Ctxt
sbh
WM8995
devctl
xpad
pno
lct
VMCI
ldr
##hex
Freq
cmdsn
scanning
siglock
lbal
bet
##Open
Sccb
porch
BQ
##2a
opnd2
amd64
TY
##itos
cab
talitos
EXTRACT
Sending
Video
pbuffer
##child
transfers
pctx
11B
rto
##WAKE
mpu401
##QUIR
kone
##4a
##251
foreach
readpage
float64
RECEIVED
spc
DU
##ointer
lm93
##phoon
hints
tiger
DUMMY
bdrv
EXPECT
iv32
ncr
hHal
0x007
##errun
LCS
##erate
mpc512
##By
NFS4ERR
resubmit
0x86
doff
##EDIA
##KB
ISREG
members
##Busy
MNT
UUID
##URED
authsize
linked
tsi148
busaddr
ALIGNMENT
qps
pamp
Seq
lcu
##Serial
HANDLER
##V2
NV04
DEVFN
determine
bMask
lgs8gxx
cpsr
exceptions
vaf
evict
##Response
e4b
##MISSION
LANE
MANUFACT
PCA
PACKETS
Wb35
IO7
mfg
mode2
cb710
entropy
##v4
##UMBO
##Chain
ALIGNED
ndx
intensity
AHB
pBss
config1
CAPAC
0L
RNDIS
diseq
SM501
typhoon
fixups
tai
saturation
1000baseT
vht
DIE
ctrlr
eckd
cost
##fill
ENOTCONN
##Selection
##ORR
GREEN
tqi
printd
0xd0
pcu
survey
rcve
##808
##ARAM
DCS
uda
##swap
##805
##cipline
based
RD32
mbed
0x37
ilen
Erase
hdrs
##TEST
rock
smsLog
elp
##Rel
PES
##OTI
smps
capt
tsi108
K1212
##f1
subdir
WIDGET
##utton
##pdu
##trap
motion
##scal
implemented
ultra
vbuf
lguest
pldat
getsock
##aq
##letion
PIT
CRT2
associated
recursive
ILOCK
hblank
##usted
##edded
##77252
gio
qng
dbm
poly
CR0
SMART
##multi
##ene
encoded
##rod
##686
##STRING
stir
zsreg
regr
txx9dmac
aq
flight
FUSE
ccfg
m5602
NEEDS
cyp
snum
sed
##1105
0x2a
320
cs4281
660x
Qu
hashval
daq
divide
istat
ich8
GPT
WMM
##FILTER
datasize
For
mb86a
abyCurr
CONVERT
ModuleInfo
netbk
FDT
MER
BMAC
ssr
##fail
rv770
cfg1
##P0
##ICIT
classid
EO
chpid
##safe
##delta
zcache
##Blink
##result
STV0900
GN
##242
p2m
0x68
##atrix
VRAM
cms
##OVERFLOW
LIBIPW
0x0020
##ncy
ipic
##uritypriv
psecuritypriv
ieee802154
SDIOH
##jits
phwi
##ISR
white
bcnt
##CSInfo
claimed
wm5100
DIB3000
mregs
mpll
SLIC
INDX
signific
calloc
##ularity
##sector
enclosure
PARALLE
hlid
palloc
75
QH
##Color
TRM
##742
modal
iblock
##well
ca91
snddev
dccps
mbedtls
fopen
Custom
opnd1
atoi
W1
flowi6
QN
btmrvl
##775
NFPROTO
isn
TOD
EISA
##5595
FREQUENCY
discipline
SYSCON
OVL
sema
##4927
StaCfg
M88
deep
rxr
taos
utf
R4
Ther
elan
SST
640
CHROM
##870
fm10k
days
apcm
RFKILL
PMBUS
mrst
ldb
Code
sendmsg
##ison
icb
afsr
DPC
##Man
##cx42
ca91cx42
lev
ldc
l3proto
logout
##cing
##FIF
cxd
PANIC
cbs
busnum
##Lp
uni2charset
measurement
pcam
newstate
dts
I2400
VPE
idmac
vic
##REL
vin
##hael
af9005
vmf
##TableIndex
CMSG
ifs
psIntf
psIntfAdapter
AMAP
##errs
bcsr
Call
##UDE
SQL
##nb
ofbi
model3
MXT
HIL
##vecs
##cov
DEP
mwdma
##Schem
bpf
ade
SAA7146
XR
design
##Vga
returning
##WARD
UNINIT
redirect
mt9p012
asconf
vfio
##ategory
buffered
kstrdup
ibcq
##7930
##644
##egment
tco
MICR
tempah
##STRE
pcibus
tps650
dib0
max98095
vmm
Ssid
TUSB
osp
roq
TAP
##Ready
SSCR
dvbdev
bytesused
Copy
##PLANE
CTC
PARALLEL
##ADV
GAM
erq
##ilinx
##Common
w996
##Net
CSD
##FORMAT
IOA
cfhsi
pagetable
KBASE
val16
REGISTERS
##01E1000
##igital
IGP01E1000
##X0
ilog2
##charge
exceed
##4x5
dib0700
##Switch
lft
##bps
DFS
MDM
escape
author
stolen
attempt
succe
KP
AXI
cycl
ccp2
eecd
##035
eer
prcmu
##iesce
##6030
nxt200x
LPM
indicator
##lit
tga
MEAS
TILING
sws
idVendor
BRK
curve
carm
CFC
sever
CLU
iterate
adfs
creating
CHARGER
PMCR
gendev
GUID
V6
ioc4
##AFF
tty3270
xmac
bx
##V3
PREALLOC
BITRATE
##EB
ias
dao
Rec
LINES
##Attributes
calling
CONTRAST
wnd
regi
DIMM
pcipriv
Attemp
imxdma
background
fe0
##D0
INVERT
ifup
plus
Wrong
APB
srcimp
##arbage
##jitsu
Ign
unic
RECLAIM
WCR
T0
##Depth
##ko
PRISM
##fdc
txring
CRDR
CLOSING
mchip
atari
0x87
T30
XLOG
asr
##1770
OBD
hlock
SCD
##QUIRY
zonelist
##cover
scheme
CXGB
HL
dfx
devlist
WANT
##m2
dwork
hret
ixp2000
MC417
fsblk
poweroff
Xfer
maddr
##lpci
##f2
NEIGH
pressed
iovar
##LOGIC
vxres
LAYOUT
##Pack
USING
APE
ECR
RFS
JBD
propag
##Present
info2
bz
##2063
xdev
uda13
SCL
EFFECT
##Speed
dtor
SAP
dev2
scbs
##umi
arg3
From
RTR
matching
indexes
##Query
##Errors
rfbi
writephy
contexts
bf5xx
##ases
0x40000000
badframe
h2c
messages
rcb
wsize
calldata
RFCOMM
Dump
##JIT
EHCA
speakup
queryctrl
retrieve
##eger
IPO
NVOBJ
since
invoke
hier
ulpi
nvbios
CAS
0x85
OUI
##Preamble
esas
Chain
esas2r
##ung
s3c64xx
geometry
ENAM
pblock
WLANTL
Assoc
##3e
uobject
1M
utf8
##Clk
HWIO
ROUTING
pagep
iloc
ovr
55
apei
quiesce
tmport
smsc95
AAL
##nap
##CHR
alpha2
islpci
##sheet
##pu
##inders
62
atl2
DDP
MBOXQ
##Logical
PACKAGE
MACR
cxt50
##Remove
cris
ALS
##1301
sos
timeouts
deg
SHFT
##BOOT
en50221
ADSP
ucb1x00
TONE
##Iter
ipl
wchar
##wc
SAL
HPTE
ENAB
XID
itype
rmem
##Dbg
protocols
you
##orated
sndbulkpipe
0xFFF
amd8111
##acr
##app
XGXS
irqlock
VREG
##rcb
##127
pptp
BNAD
pBtCoexist
finfo
vy
p4
##CRTC
MPSC
##SF
Display
TX4939
Run
xmt
viadev
me4000
kall
pybuffer
0xfd
ctype
CNV
GFC
hpsa
##4k
##ifs
IFDIR
##ynx
ohdr
SECONDS
##assif
mdb
##Tuple
emerg
DC395x
HYPER
Attrib
47
raddr
##spk
##8870
transc
Dec
CLUSTER
Sp
##wi
purb
##alg
WEP40
##Lib
##Create
RETVAL
##oom
PStack
de4x5
##ANCH
IDT
##ender
##CTL1
##ony
##MIDI
smooth
##NOTAVAIL
lbuf
##handler
vld
TCM
b5
##PRE
##emap
DCBX
##c1
gyro
outer
EADDRNOTAVAIL
WM8903
MOT
whole
##ern
##Connection
TEX
ainfo
eLIM
0x92
UAC
diseqc
uu
aaci
o2nm
restrict
writepage
##a1
AR5416
EMU8000
additional
##YUV
DSIM
HOUR
##SPI
##nf
securitypriv
tbd
dct
pppo
FORK
preallocate
HPET
extlen
NTFS
mrc
##intr
JUMBO
x00
tuning
metrics
WM97XX
copyarea
FOLL
mcontext
transmission
Virtual
f0
neh
vbat
devip
CSS
CARMINE
GELIC
##DEL
##mnd
##IRO
0x66
mcfqspi
uframe
r8180
your
##return
IDR
htim
records
GF1
##1R
F0
insns
112
ival
zExp
cardstate
0x98
ClearPage
rpt
Qos
0x0B
suns
##b1
ones
LINEAR
PBYTE
##ETOOL
##10300
percentage
##FSOC
SIRFSOC
apq
##APE
ascq
0xE0
pcan
WM8776
##lim
evdev
ang
##Recv
ich8lan
UPL
576
0x45
##zilog
##Done
vqs
HDC
unhash
##ENTRY
tnl
##demux
##b2
##egs
UND
##Duration
macro
##uenc
pcl
FsmInst
knew
brdp
ciu
micbias
smscore
BI
0x91
##5640
ubh
iminor
memdesc
INTS
##901318
PRODUCT
##kee
32000
mys
##layout
Down
I2400M
JOB
CsrUint16
##ETOOLONG
ICMPV6
tracepoint
iriap
##assert
michael
2M
cst
##409
RSA
##AU
IFA
suit
areas
reclen
ENAMETOOLONG
##AUD
PROX
WEP104
gct
lynx
lifetime
FDI
cleared
qam
actions
vtbl
##IFF
SAA7
EARLY
SENSORS
war
timewait
REGISTERED
proced
rt2x00usb
CLAIM
lzo
hipz
##inish
SENS
csize
##rrq
slabs
##Top
SDPCM
fepriv
past
##767
adding
dbgp
EECD
IQK
IREG
smsm
##Shift
4addr
njet
hc32
ost
linkrate
bcap
MFIE
bResult
FLAC
##Service
Unit
catc
##orage
DVI
WHITE
X86EM
lp87
fillrect
AMIGA
MISDN
dload
INT32
uses
rnr
maint
err0
lens
contains
##PRI
r12
mv64
octets
##m0
##STREAM
LOST
SMS
qup
F3
##actor
lib80211
consume
SIL
99
udfs
normalize
EXCP
bap
##lue
DATA0
mech
migr
##IEs
CR1
different
swab32
ESRCH
XMAC
DG
Speci
cfm
rsa
advertise
cpt
##drate
boardp
##idrv
IPU
PNP
P80211
miter
mct
MEI
srt
dim1
pvscsi
bci
cork
##Token
LASSERTF
GRPH
vmlinux
##CLOCK
fget
zap
pTS
cpia
##PHASIS
ccs
vsn
pdr
nfn
pasync
framefmt
idmap
bdx
eventfd
bluet
mirrors
LPR
##lks
sbp2
rc5
gray
pE
please
GCR
##arator
COLD
0ULL
##Transfer
LM93
kim
##smc
BBM
##ARI
stopping
ar7
err3
apq80
RTL818X
sigmask
11A
sitd
omap24xxcam
Tag
##Rece
miss
##With
##asicRate
##LedState
##vb
PCF50633
AST
reqt
eip
SLJIT
II
dscr
##HTC
kd
wcrt
tms
##V0
dcss
##51X
PALET
complex
emc
##XE
cmi
cylinders
ucast
alternate
UREG
kallsyms
gcc
##CHECK
MPP
TSSI
VBType
##OLEN
gpct
##Not
u3d
lit
Too
d11
CFM
da903x
POP
##anoia
error2
minorversion
FNIC
pxmitframe
drops
GPE
##OLOG
iqcal
useraddr
Enc
nread
aspect
mpd
mpts
TXPOWER
lanes
irql
DTMF
##PARAM
lio
PackInfo
##UMENT
PARTITION
0x89
fujitsu
svsk
pslot
ghs
lnw
squeue
BUFFERSIZE
##705
##KT
##disk
ret2
flushing
workq
0x0000ffff
REPE
WL1273
CAPACITY
cx24123
3addr
Group
i596
NODES
RXQ
urbp
##Module
BIST
rcar
lX
srcp1
filtered
NEGOTI
Bytes
FETCH
43
##hctl
SINK
CELL
EOVERFLOW
MSDOS
fdata
vib
OCP
##1100
Format
extif
##Print
##OFFS
JOM
OV76
SLICE
pReq
0xFC
##2820
##KHZ
tmp8
mbcp
READABLE
##ker
PFIFO
pbase
irqmask
##OFFSET
##ML
R8
HIP
GRU
pasid
exceeded
160
erst
uncore
pmhctl
##CPY
X1
ican
Disabling
phonet
intrfc
##8025
wbsd
0x58
tci
compan
##UINT
modeset
1000000000
garbage
getattr
BRANCH
CACH
pma
forw
lpi
##ordinate
MTX
##iB
##GRP
taiko
AFTER
Sym
BLUE
##Sys
##APIC
olen
scat
DIR2
##Initial
bmsr
pfmem
##Multicast
NOM
edata
lon
##Dis
##TSC
AUDPP
cdv
CFG80211
xoff
rspec
picolcd
M1
bfs
##Rssi
fif
medium
RGMII
RPSM
##DC32
msglen
PROTECTION
##CAL
lsw
NDR
Valid
##384
ioadl
##kts
wast
CFR
wsp
##LIMIT
cooling
hvcsd
SUM
dwKeyIndex
parav
modded
xmlSchem
##chemy
valp
requires
##BA0
rsi
slaves
ALLOCATE
##75xx
Detected
cr3
iic
##Section
##USIVE
##2Port
ioend
MPT3S
MPT3SAS
transid
##Radio
bufptr
Probe
putchar
series
tps6586x
coalesced
##LOW
vsid
ATTACH
broadsheet
eint
prescale
SN9
smsc75xx
paranoia
CPUID
ocv
hdpvr
Ram
migration
dci
TYPES
##CTX
SIT
0x71
cyber
efivar
PAG
##sets
aha15
##32x
getc
noirq
##enter
rqueue
##AddIndication
##uled
REG2
paravirt
txs
CLONE
lazy
talloc
##GC
##Pointer
secid
##lyn
SFN
dpriv
dropping
Trying
AMS
tfrc
PQ
FADT
##533
RTS51X
hdcp
rtl92d
BLACK
0x2b
PFC
persist
cryptlen
PRISM2
PDISP
##cntr
unlinked
lp397
nice
rtable
##PRO
##eak
lockd
INTEGR
manuf
atl
##devs
cx2341x
##ethod
e8390
hyp
faddr
##part
hierarch
0x74
SCS
##693
CLIP
incomp
max8925
txr
##5555
sflist
0x0040
etdev
OPTIONS
##wdt
mode1
vmem
ST0
S1040
PPC440
via82xx
##COM
CARDS
mmd
##EDIATE
pdv
##netlink
##edata
##dend
owned
##System
l2c
autosuspend
nodemask
HandleTypeDef
bluetooth
out3
##counter
##HROME
dclk
execut
gateway
##224
##Rect
Real
OL
txtp
audmode
QT
##grade
mhz
agi
spectr
ds1
Setup
##mps
pcol
SUNI
##just
keyboard
ofd
isdnloop
indicate
PST
PREFETCH
SPROM8
vsc
printer
##OMPAT
DPRAM
s5m
UCB
bid
##PRV
ramrod
HERM
iRet
SCRIPT
VMXNET
##Match
halted
cansleep
jhead
idet
##loader
##pixel
tem
PNX
##ayer
##ILT
FENCE
##SON
endio
ixp4xx
##him
WM8400
##2BIG
pmap
htable
dname
PAT
singlethread
Str
TIT
xilinx
pmlmeext
vadc
xchg
mmiowb
VMXNET3
SERR
rscn
VIRTUAL
DECODER
ch2
##Phs
iis
##wqe
bearer
DOWNLOAD
59
TOG
gather
submitted
getsockopt
kdev
##OPEN
CARL
unreference
CARL9170
ad19
##SDIO
zmw
TAPE
aad
Bss
zorro
i8259
pstAddIndication
reached
##CMEM
pmds
qinfo
tconn
##CSUM
FACILITY
##IZO
SCHIZO
irqL
ratesArray
##COUNT
dvbdemux
TVSet
a3d
wfd
wcreg
pinst
MPC52xx
challenge
##WD
beat
##ECC
INQUIRY
flist
reconfig
childregs
PSK
LWIP
##Pr
##als
movl
pmkid
significand
AVAILABLE
TMO
0x96
PROF
RESETTING
disassoc
IIS
##HAND
84
windows
beta
##Priority
las
ucma
Parameter
nfs3
segno
EXCLUSIVE
##AFFIC
coarse
ECN
take
0x63
unplug
0x52
dell
character
blkif
AEN
jsm
lowmem
pCommand
##Rev
##RTS
PTRS
initiate
Protocol
arguments
##cognized
eie
TRAFFIC
PFM
COMPARE
Xen
##wq
chipselect
None
##TREAM
zbranch
STREAMING
STALL
crtcs
ENTITY
sdhc
##OnOff
sis190
##modes
outgoing
IOCSTATUS
##511
SAVAGE
EFLAGS
gk
src2
##53c
##cred
P80211ENUM
cmn
pairs
eCurr
pcix
vyres
BMSK
##mant
pltmp
subordinate
XL
mtype
##HF
LPROPS
20000
byteout
hi2c
selftest
MPEG4
qcedev
rpipe
##lots
Word
dvfs
Result
##cont
##16a
##encrypt
LEDS
##bud
##STACK
##Cipher
0x7ff
pTransmitKey
padlen
WDOG
bNeed
termination
esn
roundData
HERMES
##eat
tablesize
##sensor
PALETTE
scaler
DATE
negative
PRESSURE
ngroups
lowcore
drawctxt
REPEAT
0444
##Var
FORCED
Context
labels
PTH
##3780
aniState
LOCATION
propagate
##Master
wlp
SUN4
exiting
smsc95xx
bcount
unsafe
corrupted
expan
dvbdmxfeed
##umes
##5a
dial
lbam
zd1201
##ifiS
FLIP
pxa27x
eop
ORIGIN
RXCSR
UMAC
##strings
mV
OBJECTID
IPOIB
pdma
DAL
Skip
inserted
FCPORT
WPS
sedl
##orer
ak45
##ENO
lbah
beg
HAT
ISOL
nibble
03x
mask2
MDS
0xAA
seqnum
RFPGA0
Sw
##IED
##ERRUN
##leb
##TSTAMP
modeflag
qstats
initdata
##object
##v1
minutes
##complete
Dummy
Cmnd
##2x0
mvumi
SONY
au8522
nway
devmap
mcpdm
xfrm6
##OZ
7220
bix
##4X5
sbs
ADP55
modified
powered
MLX5
SUBTYPE
uac
PRINTD
pagelist
manual
XGM
cmode
month
MPIC
##78xx
SECAM
##Bin
##SR1
seeprom
0x5a
chspec
UNICHROME
##UPC
DMA1
DE4X5
SREG
##DET
regVal
##ude
DCE
TOGGLE
CUT
2f
gregs
##WO
advertised
granularity
aifs
##SR0
##Protocol
flushed
EXPR
ntab
##7720
X86EMUL
2064
##aled
0x4c
LOGO
##Conf
##uation
bh2
P4
##capi
adp5520
PSS
occurred
magn
nulls
xmlSchema
##vers
delim
SPEX
##461
##1L
dk
##Frames
wm2000
##types
RSVD
##leak
FM801
vhcr
epd
sif
CLEANUP
sensitivity
udl
BINDER
icc
len2
rspi
sdrc
211
sA3
BASED
avr
##imes
hwfn
upstream
8X
swqe
viu
verdict
BMA
cod
OMAPFB
VINO
##350
revalid
ADDB
##ACCESS
coefs
data32
##orture
KeyTable
##TRANS
applesmc
CIFSS
97
600
PITCH
05
hierarchy
##232
STB
0x77
UARTDM
pap
rounding
STATIST
af9015
REFC
smb34
kHz
sreg
hostrcb
tsv
OV5642
Global
methods
0x4a
srx
hrrq
AD18
##DISK
lldi
mx3fb
##Antenna
SEQUENCE
##STYPE
limb
CLKSRC
##ANA
DMAR
MBC
HIB
##CR2
##bda
clientid
MIF
##POL
DRAW
PEG
##Disc
precision
eRFPath
Flow
RANDOM
skill
AIF2
rt61
20k
freeing
cr4
##INI
rt61pci
0644
syscore
JUMP
nameidata
his
srch
Part2Port
nak
NBR
conns
FLEX
##7X
08lX
##IFIC
hashtable
partner
##ACCEL
ADAT
CCP
##ELEN
0x49
variax
ssbi
ERS
slip
ican3
ubc
unicode
##itive
##QUE
##1024
##reak
TRANSMISSION
##d1
ft1000dev
ves
rcvbulkpipe
dont
word2
works
PPC440SPE
ull
##Sector
PFB
ieee754dp
irnet
NOEXCEPTION
##aptic
Boot
##tstamp
binfo
es1938
##TLB
##GAIN
blkio
##setup
fc8300
comment
##6010
0xde
paused
STRIDE
tspec
PY
##BUSY
intra
inbox
##v3
FORWARD
ru
##hoc
BAUD
BZ
M98095
pmz
beacons
Enabling
IOC4
horiz
BMI
##Right
fad
rateset
systab
d3
infos
lpd
noop
netmask
wcnss
pAC
##Ps
cpia2
vertex
ucblocks
##bad
wm8776
txbd
cnts
##TRACK
HPC
mysql
wm8962
##rrus
W32
irqstat
chan2
0x4f
wsm
hidp
GSO
vbl
##reg16
QID
dvs
classif
FABRIC
ULP
attention
vlyn
vlynq
reqbufs
hwread
0x7c
CONTENT
pClient
qbuf
##ONTROL
thin
ODD
Man
uml
##EMAP
pdir
CsrWifiS
mbd
inflate
PCLK
0xa40
NOS
auc
cno
qgroup
mv88e
management
ubd
MASKDWORD
XCVR
elv
nums
##DCR
gop
RAMP
r4k
PROGRAM
reports
##12864
oldset
rxring
##8007
CsrWifiSme
LOCOM
##lg
UF
atmci
##flg
layer2
##firm
GRAPH
LIRC
##vd
Par
DHCP
eoi
PHYSICAL
03d
##ENA
subL
dispose
FSM
lrg
nmap
pcfg
##PathInfo
PTC
refclk
cxgb3
CREDIT
sor
ModeIndex
##acs
varp
thrd
##EMP
rrd
word0
EXCE
##5481
BCMLOG
ILOG
fans
##As
CHIPCO
caiaq
##mpl
##420
##Fifo
lm35
aeq
ANC
rs5c
lbc
wMaxPacketSize
VFP
idi
prs
vrfb
warm
CBS
ALGOR
RAWMIDI
MOUSE
eieio
##artist
DECREF
CALC
##F8
ROFDM0
##M0
idt77252
cpa
##UTABLE
RTNL
##Supported
NV50
blkcg
exchange
0x53
NID
JME
dmp
##3026
dlg
energy
venus
ett
##BG
##atchdog
secno
##ument
##OZEN
##EEPROM
alchemy
easycap
ldata
TMDS
##assification
XP
##GL
logic
Cache
yld
PCIO
waveartist
DINODE
ngen
0x51
GPI
MIS
gpc
fail3
ftmac100
##iving
longname
rxs
WRITABLE
layers
##Release
ioreqs
##854
CNTR
EIL
06lx
utime
wm8903
##Instance
pm8921
WK
fifos
pExt
repo
3000
##Chnl
mA
##Pass
##RAMDAC
##alias
SetCRT2ToLCD
##gid
##INV
##hing
ATMCI
CV
near
##SISTENT
##regaddr
combios
ieee754sp
##432
rt2500usb
Len
##6100
##TRACE
xip
MACCTL
UART1
sll
u32temp
zSign
plink
fifosize
GA
ftg
OSK
##TSCTS
##Display
retransmit
##idget
uptr
PHYTYPE
devtype
DMA0
nv10
amd8111e
wl1273
##I2c
jj
ad1889
scheduled
EXPAND
gimple
kt
atchan
##lean
ulpq
Min
intrs
CRTSCTS
thrott
LOCOMO
Tmp
ChipType
r6
ftgmac100
epp
##PreED
alloced
0x0007
U64
reads
txdes
hwi
##ITIVE
##achip
##Col
gref
##upd
##done
dpb
density
qnum
##emb
roots
PCICFG
##VISOR
piocb
instmem
##Remain
kmemleak
isec
ry
##self
CRITICAL
EMULATE
##I2
PROB
##ssert
##WARN
##ium
##vlan
least
##4xxx
FIND
##EMPTY
cmx
LTQ
M88E1000
osi
IFC
##Sense
dpot
stv0299
resultcode
dam
jorn
direntry
rfreg
UnMap
Sys
##agic
death
##Mlm
MAX8997
omfs
spit
ccwgroup
##tep
##h32
addend
checks
smic
INSTANCE
##ROM
##410
##rbits
iotag
##MCS
given
##enet
writeisac
xlen
##hresh
PL0
0x94
ZS
##LET
vosStatus
tpnt
HSS
csr0
##ny
sdi
ATTN
CXGBI
##burst
##Sequence
##ech
##latform
##07
spp
##LAP
##69
##onic
06x
specs
OSST
eld
IPX
ltab
NEX
GLB
rlim
4000
WFD
Sel
Tran
##REGOFFS
CHROMA
deviceid
matched
##TxRate
histogram
getint
CAT
clps
PATA
descq
ULTRA
txhdr
incompat
QLOGIC
vlocation
timebase
imx0
Enabled
##PhsRule
##UTES
rtl8187
RTAS
pgt
sblock
##Modes
##TimerValue
CBR
fibptr
dvi
heal
naddr
##Classification
sections
INCOMPAT
disposition
0x2f
FRAC
IDC
##hru
perag
MXR
##stride
ADM10
COMPLETED
audp
NUMA
optrom
HWACCEL
kexec
SUBDEVICE
##518
Dest
hits
##Dsp
life
AR93
blacklist
wpt
ADIS
fxns
una
CONSTANT
Gr
##dsdio
dhdsdio
##long
c2port
SISCR
attempts
hashinfo
swab16
some
##201
##bitmap
HIGHMEM
##User
PM8XXX
bswap
kcqe
##esInfo
setBB
setBBreg
0x0E
rejected
KB
##ARR
es1688
ncpi
KD
mng
Ack
s2255
cxgb4
VARI
##ef
revalidate
##Dma
##ookup
EXTEND
##T0
being
##977
sessionid
##3927
##Location
msblk
sun3
objs
bt87
##ored
##scaler
flogi
targetPower
KOBJ
Release
psFlash2xCSInfo
##SYN
PACKED
curregs
5d
ks8842
RT5631
CBC
pStaDs
DAQ
nsm
kretp
BCR
coreid
drhd
ehc
Query
reuse
cbd
ADVANCE
MAS
readback
pppoe
ZLEN
##ys
errata
backtrace
mfb
transferred
##unch
0x46
PATCH
0xef
##nowled
0xBF
hwa742
0x3e
rFP
af9013
IBMVFC
icon
USER0
FUSB
sndbuf
ptr1
OZ
aem
PEN
gcov
pBuffer
rms
xrc
psAdapter
RBBM
ASI
IRCC
adm1026
STEER
mm2
SMU
colour
ldn
##uge
uregs
##aved
mlmepriv
lflags
IIC
##ves
##Avail
dlfb
##prop
ichan
gone
MODES
updates
TIFF
##DIC
TPD
##mic
##span
ad1816a
VSC
SetGPIO
##other
nsc
MPU401
IOT
##PKT
kh
eflags
##ASK
si4713
getting
0xa1
##Cal
ftp
operational
FROZEN
##IPE
MANUFACTUR
txrate
macb
##ITHM
umount
##bw
HFCSX
##touch
mos7720
##pcb
dvma
torture
opb
arena
che
85
##2870
##1284
emma
cpm2
WF
lsp
##layer
bms
0x0080
mptsas
iounit
##ternal
triggered
##ii
RXH
##TxPower
granted
##PTS
##If
##EEK
XGMAC
wlapi
RELA
##eeded
##graph
##ming
osbuf
DCTL
Failure
GAMMA
FSMC
pdi
MCT
i4
Close
rjt
peb
byBBPreED
isspace
reqtfm
NOWAIT
sja
##riting
##atable
8390
CFG2
euid
##2415
dirs
mbim
WEIGHT
##LEM
ip6t
pdw
CCA
wkal
ar2
0xf7
##987
CRTC2
autofs4
LID
adaptive
SDMMC
##RIX
##283
SUBSYSTEM
opnd3
bcp
LDC
sar
DONTWAIT
BATCH
POD
rap
ogm
ate
##h200
FRAGMENT
interleave
scbp
wm8993
pcbit
throtl
fusbh200
congestion
ngene
##SCE
DISASSOC
pgrp
fsinfo
spm
LPS
forget
MDP4
WV
Wb35Reg
##bound
addr3
correction
sleb
COS
swiot
swiotlb
##bridge
syncrate
115200
propval
deny
MCDI
uasm
ringparam
Missing
11n
lbq
max170
gang
2055
##aving
CPC
uarg
##EAR
##IOV
UNW
##ets
bExp
related
sja1000
referenced
READ32
peers
##ZZ
CAIF
WM9081
cdesc
less
cirrus
EPP
baseaddr
mm1
Autoneg
syse
AMC
sequenc
tve
blt
exceeds
##angle
nosync
##2028
##Codec
##9840
minlen
st5481
unk
fddiPORT
sser
avp
wdog
health
##CTR
##mat
##CurrentRate
acquires
Old
coff
cil
wCurrentRate
renew
pA
CHN
CCSR
labpc
bsd
CBM
OWORD
dcp
m88
exts
volumes
DPRINTF
##nalog
chanctx
##PEC
##974
0xa5
RSRC
##lc
##achine
##omain
GPL
tdesc
##WEP
wseq
##Option
ch7006
cfgpin
avoid
q2
MIXART
HFLAG
##mart
STATUS1
BFD
##ehf
##544
Response
xcb
ARGB
0x0000FFFF
##203
##walk
511
##Load
##BssDesc
sockfd
500000
1023
##6c
##SType
pmboxq
ibmveth
##uiet
rxtx
BUCKET
sects
SA1111
PTS
b4
TunerRegs
82599
vuart
brg
##Fw
fue
##Rsr
72
rmdir
Uint
Gi
##OPY
RFALSE
DSD
0xbf
connectors
DIB3000MB
##IMER
hidg
##book
VDBG
##HORT
##visor
btdm
portno
rcnt
Char
w83627hf
ioasc
CIS
colors
ENE
cdma
WORD0
CCS
##OKEN
Report
TSS
DMERR
exynos5
then
tioca
harm
Core
MSS
XMT
ISPPRV
REFRESH
ced
HVR
##baf
meas
DA72
51
instead
116
0x110
##SUN
WIMAX
tracker
##ControlBlock
##TIMEOUT
##Private
PING
##CHG
t3cdev
##settings
Fi
HIER
##Tree
sqnum
##B5
vt1724
blend
##BIAS
vtx
WWN
aops
rtr
pTlv
0x65
Action
E2BIG
qlogic
##ODATE
csid
fmts
bufio
##UCR
##82532
underrun
undecorated
baudrate
CTL1
VERBS
Mc
WDS
h1
##egin
ASP
999
idma
ROUTER
UPTODATE
cpuhw
saver
OUTPLL
0x010
##583
stid
UG
##adow
##ctl1
rtac
DBC
pScan
xonar
##gers
manage
dxe
##IET
##23a
##nod
dmov
inher
##D2
JMP
##InitStruct
pTxPacket
HELPER
##iling
usbhsg
C3
##INew
smb2
PCIe
rFPGA0
##aplus
SetRegANDOR
##VALID
cs55
##OLOGY
MIDDLE
SOFTWARE
preq
NVWrite
##we
unres
pauseparam
##M1
CSIO
o2net
eraseblock
f71882
dow
CLAW
thres
clockevents
pstat
msmsd
msmsdcc
mill
kov
##ault
f71882fg
PSP
tch
0x1E
textures
suite
ypcm
EILSEQ
ux500
w83627ehf
FEATURES
gpiomux
rbt
TUR
dget
##evm
WX
siz
dbell
MAX77
kovaplus
ldm
##Bulk
PRV
pxafb
kretprobe
Fref
##ayout
SATURATION
96000
abuf
mt9v022
echoaudio
##008
OCRDMA
langwell
LCDR
mt9t112
HYPERVISOR
tusb
##25x
atmvcc
6120
##ouse
sbm
##HEEL
TWO
##j60
##uru
##VERS
##28j60
BATADV
wqes
enc28j60
REQUIRED
H2C
MBED
##Ba
##FLUSH
TTL
##cores
BTCoex
wphy
KSEG
sab
upriv
cnid
PageUptodate
RME9652
wRate
bitfield
##OutPort
devel
mpc85
##139
wrmsr
gmx
uld
xmlChar
EVEN
##MMU
##anc
##38XX
MALLOC
Tar
rF
0x2e
XGINew
ASPECT
##2str
circular
MANUFACTURER
srl
devnode
cpi
phead
0xcc
lzma
param1
iwl4965
REJ
0x00000002
##3200
Stand
interlaced
u1b
cntxt
rt2x00mmio
##vg
giveback
##BlinkInProgress
pCap
4k
##PW
PRIVACY
efm
vddc
##76x
0x7a
##Body
DBL
##5523
##CAM
VNSvOutPort
##CapInfo
##ipl
##number
vmax
SQU
##OTTOM
eid
estats
pccard
##ulse
csrows
##hasis
cft
##olds
BBT
hibern
##ertype
asic3
LANCE
txdata
##OTG
tempword
sdmmc
##Spect
Signal
act2000
SDR0
##06
##VENDOR
wandev
sgs
CQR
FUSB300
BOOK
##3a
##UTION
adapdata
syscon
##ERNET
WUSB
IMMEDIATE
modelist
fsuid
ctnetlink
##SQ3
dar
##D1
HLIST
roccat
Exec
##HTCap
##Non
udphdr
stb
NOMEM
bte
deflate
msw
SBSDIO
ktype
##Old
arg0
ux
sdd
21143
i2sdev
s4
##8XXX
SIOCS
##galg
##8767
chargalg
ltc
Success
vnt
##CMODE
##fffff
dacs
ASSERTCMP
oinfo
ADIS16
CREG
Source
##Tar
EBADMSG
Src
leaves
pra
gpuaddr
Hv
rblock
usf
filemap
##9118
etype
##route
TWL6040
tP
qtcb
010
hddLog
bast
intstatus
hwcfg
buffs
##BssInfo
FIBRE
fotg
##Wr
BOTTOM
ICC
819
currTar
hooknum
fotg210
0x0fff
kl
hwinfo
pktq
UNSPECIFIED
##SIG
svg
zn
home
##igy
CA91
rspiocb
vxfs
0x62
AUTHOR
0x7fffffff
##Operation
dev1
config2
##gtt
cbFrameLength
PPLL
##API
fwnet
pg1
pca95
IMASK
BANDWIDTH
0x8f
au1x
ALGORITHM
leak
RND
ks8851
##13xx
##PHOON
tvp5150
TYPHOON
devic
PEB
S32
fails
abit
MB86
irqstatus
addr32
pstapriv
vlen
NOTIFICATION
TCGv
trbs
cypress
CONFIG1
20kx
probing
##mci
PDR
icmpv6
hg
xv
HOSTAP
##Feature
stv6110x
CPT
CISC
##Win
kib
scontext
out0
STRIPE
GREG
##10GE
##8b
mlm
##thernet
SBI
DCSR
KL
DSSERR
##sumed
##mal
##star
##Resp
PERR
serr
bsp
snod
curl
fpa
congested
49
PTY
wbd
port0
nlk
##Dst
AdvWrite
CST
mail
in1
##Access
subclass
ACCEPTED
completions
PTL
category
relay
##descr
SIF
frametype
WAITQUEUE
dqopt
dither
##ITIES
##209
stime
UNREG
VIACR
oact
##Sym
GSTRING
MAPP
cthdr
##PRIO
stf
CH1
0x5c
TICKS
efd
bgmac
stuck
encaps
Receive
sspi
RegValue
abi
cyclic
envel
##Reorder
bInterval
##61x
BOOKE
Trace
##ACHeader
0x1fff
mur
HWTSTAMP
nw64
et61x
et61x251
rfctrl
han
KBD
MSEC
##Own
##onum
equ
lci
##Probe
##parms
versions
hys
nvmeq
interlace
DRX
qkey
uea
endpt
Capture
activated
teles
108
nargs
##NR
pbe
PortP
odm
out32
##Post
acq
spacc
cx8
Refresh
##HB
##BufSize
Arg
anal
ad1848
getenv
CsrWifi
ch0
##CX42
CA91CX42
768
nss
##Pool
bLength
classify
##onl
hello
##BYTES
##CNTR
##IMSG
##IK
##BTT
walker
arbiter
pdf
latest
sib
edca
ZR0
prior
TITAN
MBEDTLS
##030
uncached
##312
rxdma
PM2
sigp
180
34xx
##atom
angle
kvaddr
subpriv
##DO
sbc
cyber2000
##LOOP
SELECTOR
txdma
passthru
STALE
mz
isink
SURFACE
datain
person
##Thresh
##48t
uvesafb
mgd
AMB
##first
wport
CTL2
Inquiry
txpw
grace
DLL
pixmap
pmlmeinfo
##SrcOnOff
##Options
Active
##ocache
reipl
radeonfb
##Blocks
bIs
adf
hsusb
nports
qfq
timekee
VMID
AREF
tel
mctl
ust
##Hub
##PLX
connections
aarp
backends
wkalrm
UPF
PXA
SCF
haptic
##oa
qr
waiters
dj
deemp
zh
setbits
##trig
##NeighborRoam
##attrs
ESSID
rhs
actx
##uguru
abituguru
STORAGE
tmp16
unack
DETECTED
vpp
STATUS0
##Full
CHARGING
s626
fbuf
##nk
kioc
##ryp
RXCSUM
##pack
cx24110
##2A
##ayman
vtag
MEMCPY
bmAttributes
sgid
batman
tea5
qcmd
emul
UNDEFINED
vect
type0
sanity
plog
stay
hysdn
##amples
eject
pWda
ban
Up
adt7316
returns
afc
##period
0x99
##1064
##WAP
VPRINTK
RTT
ala
OM
afu
htcp
restorer
PLCP
SDA
BOX
Non
IRQ0
Array
prefixlen
##oline
##BOARD
##WISE
jc
##SELECT
ATC
adhoc
supplied
SACK
##Pipe
##Find
RXDMA
tol
wire
xaddr
tsl
##essor
WAT
##abs
##302
cayman
0x67
icodec
framesize
physhim
fm3130
ndelay
dm1105
rvalue
KC
mtc
saf
rpcm
##pong
modul
ezusb
##wake
drx
tempval
sgpg
hndl
POLLING
subbuf
ts1
Ring
inocache
##Act
##erra
devconfig
##children
iv16
gets
##TRAP
MPA
##Glue
sachip
uss
databuf
CBL
cpqhp
syms
PSMgmt
##interrupt
PSMgmtObject
##atal
##cook
pga
rr3
PMKID
SSYNC
ipmr
##GlobalInfo
l2x0
zbud
powerdown
tosa
ledctl
companion
##v7
##RB
PRCMU
noa
8250
akm4xxx
CIPS
UNREACH
iam
MACRO
pBase
hopcount
PCID
##meter
##222
##xprt
PKCS
gsGlobalInfo
frv
compact
##REMENT
aoe
combine
bfqd
skel
##dency
Counter
jade
##Core
exe
bitstream
remcom
AVG
trie
##5500
##Model
framerate
skbn
divs
PACKET0
##m3
autog
0x39
SPARE
penv
DAC33
spkr
##ones
pegas
sptr
SECTORS
SAB82532
GPIO0
08L
objnode
cx8802
##urface
tmu
envelope
prGlue
tmc
mm0
edmac
##DW
cumul
fde
RF2G
0xec
msdu
thaw
IMMUTABLE
bufnum
pgid
indir
##Parse
##ARB
sha256
msdos
cops
ak4114
alauda
##Consumed
lead
DTV
pev
##APS
fws
strong
sysinfo
COUN
SerialSignal
eos
bytestream
moxa
0xb8
##3456
##osit
psdev
##nost
saa711x
##Capability
pwrst
inited
ovly
harmony
SHARE
msmfb
avi
Hi
pmdp
foot
dccph
Waiting
Writing
acdev
vbios
cie
iotg
lrc
DATA1
tvbuff
vcp
TXDMA
bars
entering
Starting
XBT
##andom
MUIC
##TAB
##1250
VPATH
##ances
scsiq
VP8
Ir
DIGI
LOG1
##LAG
DETACH
MFP
isone
##bler
nextents
PRAMIN
resh
abyAddr
CONFIG2
##Encoder
FTYPE
leon
BCI
Transmit
NIT
##omp
IEN
xfers
cfspi
mspro
pthru
vsize
##uni
BOOST
##RESP
translation
##71X
Entered
prGlueInfo
streq
##Transmit
logging
TIMx
axienet
denied
##100000
COUNTRY
fuc
##QUIRE
smap
nst
##vendor
##perf
da8xx
1500
max7
Lx
stx
ielen
maxsize
backoff
auxpcm
m48t
library
sendf
scatterwalk
spidev
puv
PIXCLK
op2
ful
MVSD
##DONE
BUSWIDTH
##LENGTH
abSrcOnOff
CSP
wrmsrl
##PG
0x0800
UNITS
keysize
layr
##vi
aat
csr6
kvp
headset
awake
chipcHw
##rollers
##6x
dqblk
PSY
ppa
FTRACE
sossi
intmask
ironl
ironlake
##rength
cstat
bufq
##bPr
newmode
mc13783
DMA32
##SHOT
iopte
Network
vtarget
ureg
##1409
nowait
clut
##TABLE
sctrl
toler
S5K
##PB
epm
ITR
rsk
iwl3945
sierra
DISPATCH
ps2if
nframes
##Intr
flowlabel
pbi
sleeping
##lice
pcmp
ptable
ntb
FELIC
taskfile
FELICA
YEAR
dfa
smoothed
userptr
##OSITION
authkey
s3c2412
##VEC
BLEND
cohc
it91
pMACHeader
SADB
TCL
##IDTable
wrote
##dbm
MACIO
msglevel
nonce
namlen
cxd2820
cxd2820r
pres
##Detect
##irection
vibr
acks
txcal
bset
cmdtest
twsk
0xe7
hfsc
factory
1280x
SCA
rcvegr
COLORSPACE
##10353
fail0
ILL
XX
smsc47
lsave
chan2dev
ptc
Entering
txstatus
USHORT
SPARC
INFORM
##978
##loc
##pen
##roadcast
LCDD
PPK
F4
STG
mxb
##ajor
context2
DCACHE
checking
spca506
24G
tclk
glbl
recycle
HEAP
Lib
hss
r9
v5
pgsize
APCI1564
##asp
spy
GDT
irqchip
ipm
VEL
0xf3
##atum
##DMAC
##97a
iop3xx
##DFCB
1280
Le
xspi
PDA
NSS
puv3
##mtu
MT9V0
M41
trampoline
parsing
cpsw
addr0
vmcs12
ucpi
HFCUSB
CARRY
ci13xxx
mantissa
tbase
blast
##ypes
vst
within
ulpevent
Soft
usbat
dmach
ETHERNET
pointers
AWAKE
umidi
##E0
hcs
sectorsize
cidr
SHMEM
mknod
ip2
cx24116
CLKCTRL
AUI
pBA
ABE
ilt
0xcf
ltr
attempting
##UNREACH
TUNNEL
IU
lme
##X1
irttp
HFCD
xstate
##DeviceExtension
nm256
ailp
VEN
word1
RSR
CSR1
uhid
snapc
cbr
##MPS
CRYP
emi
##NORM
PGM
ACER
arc4
PRIx
EEH
errsts
pCtx
ecn
digits
obsole
AXIS
tuners
fxn
include
##753
g0
sfmt
coeffs
dibh
##FLD
##sert
##FOR
ans
pRxPacket
cpe
SAMPL
0x93
pme
piobuf
OPMODE
FM10K
OEM
bpt
txreq
W0
memblk
bcl
NOERROR
CCCR
Pn
acer
hwdev
HwDeviceExtension
##afe
SYNTH
pegasus
DLE
dHz
M41T
0x3FF
schib
bac
##4A
0xfffff
ETRA
VDEC
uncomp
hptiop
crashk
MERGE
##uint
mspi
BCM5
dmaqueue
icmph
urg
bts
OFFLOAD
RefreshRate
wwan
DeviceInfo
itf
zeros
ETRAX
field8
x3
swstats
lseek
##ws
##FM
CALIBRATE
luns
cld
Server
eANI
vfe40
CIT
rssical
4s
FOLLOW
ask
timeleft
zl10353
wTx
iagp
succeeded
##3XX
AGGR
##umb
iotype
lval
thi
VREF
tCsr
epll
##CHO
oldstate
ANA
PRIu
ore
mcg
ds1wm
lbl
##alink
##imers
##1600
larval
DVC
sval
w83793
cmtp
itimer
PCFG
k1
Comm
SMEM
##interval
Y2
stainfo
kmemcheck
SCANNING
subtyp
0x10000000
##Ino
DISPOSITION
q0
scom
DCMD
INTERRUPTS
IAS
ncb
ALUA
ECP
arpt
HDRLEN
InitStruct
##Identifier
edd
mt9p031
0x800000
rang
##nicmp
rpf
cff
Chan
portc
imux
ufx
fhandle
##8660
##ALK
hwahc
td0
Exp
ffb
##CSS
##assign
setbit
CS42L
ROP
CCFG
LPORT
barker
maxburst
ZOR
Vendor
DEVNAME
dimension
kstrtol
stick
unreserve
rev7
coalescing
mt9t013
##Join
20s
sis5595
PUBL
Dma
sbq
##Endpoints
sdmac
ULTR
klen
minors
##VIEW
PL080
HPAGE
codecs
verf
netns
gov
##f00
##ena
aic3x
##Swap
##Reserved
##olute
subscribe
l5
##Mutex
WCN
inherit
95
NCI
uep
creation
coding
RMNET
NORE
smm
GAP
OOM
i5100
##6775
clksel
G0
MENU
SQLITE
Sensor
dm9000
SYSFS
Access
rbtx4
lag
REQUESTED
resmgr
64bit
ddi
RefreshRateTableIndex
##hsh
DATAPORT
segctor
powernow
3w
bits64
paging
##q1
##3A
MARKER
1u
mega
lblock
PIA
NEST
EDCA
TARG
fbmem
eWN
##Network
eWNI
MT2063
pnd
tsize
strnicmp
##Paddr
muram
111
Te
##5e
pkeys
Radio
itdev
##Agg
wlcore
##blit
mdp5
##ACL
wowlan
lrd
##750
16000
##Speci
TRANSITION
10GB
csdev
remount
unless
IBCC
chipid
ctrl1
nrg
MT9M
1b
fine
SPEAR
grc
ACM
initialised
xgi
0x56
##olar
w6692
pnet
PMCRAID
ssd
tmp0
kbc
place
apds
ISL38XX
PTK
##oned
##cir
SHA256
jrdev
vft
##Rsv
nonse
0x3b
PM8058
##retry
removing
CCI
##mpmu
pgdir
BINARY
Buf
WU
EPROM
##8X
PRS
max3100
cfile
##Video
RESID
LU
##bmp
##740
0xff000000
isight
dmaaddr
BCAST
RETUNE
##rsp
enq
0x0D
STROBE
SAFE
ioat2
steal
JBD2
txh
mappings
QUIET
##Unic
BGR
E2
kB
plain
FINISHED
instream
msic
0x2d
CAPIMSG
Path
PMT
Xsig
tr32
##DCTRL
alts
didd
pc87360
##stale
TM6010
PICT
Extension
LogicalDrive
above
ISIF
mve
type1
stv0297
utsname
0x01000000
lq035
garp
nack
conver
##TREE
frq
##CESSARY
##Controller
LVT
compressor
iterations
Blinking
OVS
DCFG
iovbuf
flowi4
pret
z85
##rie
CDS
templen
String
far
##dsp
0xba
nothing
RFSEQ
collection
F2FS
##NV
gpriv
##ategy
ebus
##sence
VMM
lbp
PWRDN
mfi
aliases
##WR32
##8c
##atype
##HSCX
FIFOC
corgi
sca3000
##Disk
cisco
SECURE
dux
##Ram
Ant
False
##pic
ds3000
THROTT
##260
ETM
##TREF
rtl92s
0x7FFF
viodev
aat2870
sa11x0
tcvr
authentication
x4
VPI
logger
RCODE
cs4297a
SFC
uprobe
##CHIP
##930
Be
SOR
##rvTime
eft
sdt
Parse
pgmn
##etah
VIC
pprev
softif
NITIO
syncp
##VCLK
nrssi
saw
Sense
kinfo
DIRECTORY
NTAB
cross
SSR
zr36060
1900
MMCSD
##TSF
##mer
fce
veth
iop13xx
pltfm
ABIT
NIno
decoded
88E
wg
##ATIME
##PLETE
npiv
TIMER1
WM8958
titan
##1285
VMALLOC
REMOV
FPR
LSC
implicit
HIS
d32
gating
key1
##ured
ccode
operating
Ignoring
fire
sddr
npc
SCHEM
871X
CGROUP
LVD
CODA
##ELength
gpointer
##33c
##64461
WM8900
bist
FG
ering
deps
##ASED
bootloader
bNumEndpoints
shrinker
ways
INVERSION
##PLCI
Platform
xics
rplci
iops
usbhsh
lm3533
vsg
##Slave
devpath
SVIDEO
brid
RME32
whcrc
zoom
aic32
##ocus
CTLR
swapped
pWdaParams
elbc
gcwq
xscale
fragsize
RNR
ade77
inlen
COALE
cyttsp4
VNIC
coh901318
STK
DRBD
udph
pbc
##450
effective
saveregs
##Tdma
HMAC
##NTL
value32
keyconf
epq
xts
##3333
ov7670
LCDResInfo
mean
##odeIDTable
Attribute
dcc
##CSType
LATER
psfCSType
srf
HOLE
TX4938
pBeacon
hiddev
negotiate
0x73
0xf9
NFT
tsec
##gnt
haddr
boardflags
uic
rdmsrl
icq
GMC
x2apic
##DSX
0x72
writebuf
key2
CSIZE
oa
div1
0xA0
##STHR
##atterns
##6650
k2
Rcv
stab
hcpu
MPS
lith
removal
##FLIP
##82c
40MHZ
ESD
timeri
decoding
uncheck
REASSOC
W6692
pLtv
Digital
hsdev
defc
usart
CNTL2
SEEN
PHS
MV64x60
dtlck
DoC
XZ
##Run
ioprio
##Ports
isdigit
##stable
##icker
multipath
zx
##CTL0
atoms
MNG
DEAUTH
GINT
sint
pyra
##perty
imon
PREFER
VPIF
ENOP
divert
##chedule
##400000
SAA7191
reshape
##URU
TRACKING
HIERARC
##verb
POLLOUT
FPE
regl
sev
cfe
extp
cfg0
mtip
sh73
checked
oobbuf
HIERARCHY
eaz
##ALTH
PCI230
LOGW
prepared
SIGILL
kstrtou
pIE
UNNE
wm85
rebuild
PROPERT
SIGTRAP
DSP2
STm
prsp
0x6c
##WordLram
Dw
kas
vrm
##313
mn10300
z8530
eu
##WE
ME4000
##606
tvaudio
11G
##oved
USBA
SCIC
0x3a
r11
CommandStatus
UGURU
endptr
RTF
240
##2802
ptx
##1310
fmov
pConfig
pft
preg
prb
tpo
PUR
hosts
Vcc
UA
##INTEN
vt220
imageblit
cpuct
lrh
##ween
violation
Super
slices
UNNECESSARY
minst
i7core
clkctl
s1d
AUTOM
PyErr
APC
FAL
Hash
doing
g2
mregion
##tec
minstrel
##anstep
qtag
AR9285
irec
vdata
DAC2
ista
##ff00
sprite
ClockSelection
Transfer
slope
##aN
embedded
O2NM
coproc
ENH
rmac
PASSTHR
mangle
hcfCtx
##vram
suballoc
sk2
DUART
depend
##Region
##uts
VHT
hDbg
mlen
##thif
##busState
wsum
##ISON
locking
iszero
blktrans
prediv
LOADED
##OCITY
relocate
GPCMD
IRQSTATUS
XenbusState
HANDSH
U1
HEALTH
##ided
VELOCITY
putPaddr
##Work
mtr
it913x
Oper
newlen
##First
personality
##LT
Short
lwm
##Quiet
##chips
0x76
##Reason
modalias
G1
NLBL
unchecked
CROP
gsmi
##zzard
debugger
incomplete
cxhdl
lgdt3305
uccf
msize
##KD
IWARP
jedec
aalg
hweight
##ngine
cs5535au
##lines
##uite
WAN
luaL
##MER
tdfx
s5h1409
WR08
moved
##cons
extradata
hide
esr
0xc2
grip
RDAC
cheetah
##onep
SetPageUptodate
numrecs
ZR360
t7
vfb
SECS
FINAL
HANDSHAKE
CPR
hwptr
FRAMER
oak
tcode
##CONNECTED
IGA
X2
HDP
##555
l1p
clcd
UNSOL
site
CNFG
ATR
abts
##ODD
dp83
##sects
##9xx
MAPPING
wmt
rcg
NAPI
RGB565
streamoff
TPT
pflags
##Wake
CONTAIN
YES
##cpt
##34xx
cel
xxxx
DFLT
aclk
LCDInfo
PEEK
fsck
Image
##DEP
##9200
##80xx
##edir
RDC
xgmac
mgid
reschedule
##ackets
xstats
C4
0x000000FF
##fast
subpacket
kpage
0xf1
##2835
RULE
retVal
dsds
##riter
##MARK
##GRESS
STATES
yr
PAIRWISE
##Pad
INCL
PARA
inotify
PMAP
CONNECTING
DCTSIZE
uctx
##SerialNumber
nfct
es705
bases
pcl8
TEMPL
blizzard
IOMUXC
apq8064
mv88e6
vblk
undefined
ibcctrl
CACHED
syncpt
GPIO1
UNDERRUN
ONSTACK
deauth
MAC0
##HUP
NACK
msgid
rnic
##HIB
hsep
diu
##nostic
##532
SMSM
QUICK
MVM
wm8996
IPT
REFER
pppox
edb
SAMSUN
SAMSUNG
dlid
ert
##Move
ndig
##Task
aty128
##stre
xclk
##uer
msn
WM85
umask
##l4
REG3
##FLASH
bitnr
fbs
##EQ
##hx
0x4b
##OLOCK
RXF
rotary
severity
netvsc
GTP
mReq
##icb
comet
RXCFG
##NIM
##FLEN
IOIM
ZON
ALLOCATION
##ository
BV
aif1
WPA2
usb1
objp
stats64
clearing
pSet
POSTING
geniv
vcnt
twl6030
##RGB
DNS
subscriber
RELAX
rtlpcipriv
##NOSUPPORT
ALLOCATED
CLOSEST
adisc
##BAP
ethaddr
##ables
CALIBRATION
DTIM
MGR
8021
WM8961
##PN
count1
ethoc
CP0
hwp
##Receive
8s
0x080
ioceth
##421
obsolete
PINS
##GM
isp1301
##pie
##515
##andatory
raw3215
PVOID
##imm
LRCLK
rt2x00queue
##80031
ad787
transportt
LMP
rbo
PyTuple
fingers
##l3
keyspan
##8200
Cfg
l0
##LOCAL
##dls
infoframe
MFT
##BasicRate
##upper
username
uiIndex
pampd
ein
DISCONNECTING
pon
bnapi
VIF
amo
SETTINGS
TRUECOLOR
Change
b7
##213
swapper
INP
avtab
##760
setcol
boundlen
probe1
##5645
mv643xx
repository
##Delete
md5sig
##grps
dconf
had
pcibk
##Physical
ACQUIRE
LTV
A3XX
IRQ1
##Buffers
SISO
Delay
DSCR
##970
CH7006
##SETUP
cycx
tda10048
efs
bgc
##c73
##screen
GPO
##ager
Controlv
##Parser
wasted
addi
Lo
controllers
p16
##Cnf
io7
epctrl
##LATION
##UNIT
EXTENSION
TRIP
div2
DMEM
PBA
mem2
Assert
bsr
##APTER
ds2780
s5c73
OPERATIONAL
lustre
0xFFFF0000
JD
bankwidth
s5c73m3
##oy
##rlevel
bmval
##IDLE
hva
hung
GRO
coresight
App
##Segment
133
82
S24
##orr
packing
hep
##V1
384
kimage
5u
pEventData
bEnable
BROKEN
fc4
lac
wcaps
HDCP
rceb
unth
##2230
WAC
SN9C
##interruptible
Off
##IPHERAL
awacs
mgslpc
pcp
idetape
rbp
uninterruptible
memb
XF
crypto4xx
BANKS
PERIPHERAL
BTCO
mvebu
lm85
ilo
ZR36057
##argin
adapters
##Audio
##eces
##47xx
cx22
newport
PGD
rfs
caldata
ramdisk
outarg
type3
##flvl
UnMapId
8bit
uapsd
0xfffe
GPCT
##x200
##atic
SI4
CONNTRACK
SUBKEY
pxa25x
data3
crl
estatus
maven
rgmii
ipq
##ChangeState
TPG
##CMULTI
gva
##THDR
mvotg
tmpreg
think
sigio
tcr
Client
parg
0x0400
##ROTOOPT
##9812
ptt
inverted
accumulator
Find
##IMP
mw32
PMEM
t0x
lis3lv
ENOPROTOOPT
ebi
fz
throttled
iap
nexth
UART011
pintf
VOC
outstream
##quota
wiim
##icited
##msh
BLC
cardtype
##8427
##RS
offset1
it82
##LoopIndex
XEXP
rex
txdr
SCM
0xdf
PSYCHO
pnv
wtime
idlet
HUE
##7xx
##adj
105
pHeader
ALX
r852
HCR
aSR
cpg
schan
ofb
READWRITE
##Bank
aSRpnt
##available
never
DRAIN
jobs
##oe
pieces
powersave
pdx
requesting
8723
##rogress
HPL
pctrl
DAC1
phs
ndp
##ols
sax
##Needed
CRS
VOSS
HFCMULTI
##lgauge
el3
bchan
encr
USBD
##rottle
TN
nreq
##09
##36xx
policydb
cw1200
tiocmget
##2f
lockup
##ADE
##phase
dno
##RING
##atent
##rn
floatx80
SPECIFIC
##Stride
stac92xx
IOS
ipimap
devconf
xmon
au1550
annotate
##pan
##MGT
uval
nsize
Dwarf
##1800
lis3lv02d
vbif
drbg
Pin
XY
##LM
fsn
bits1
iqk
##install
##Failure
regex
##AGIC
agbp
IPACX
fuelgauge
qin
##dq
perflvl
##master
CONTIG
IOR
pcms
twi
orient
nsproxy
WriteI2c
caam
happen
WW
##1a
PTU
##Args
0xc4
xdst
dal
marv
mpt3s
mpt3sas
##ouch
ami
##3b
water
ICM
##ClassificationRule
##ITX
CLAMP
hbp
EXECUTE
##2020
##tern
##SLOT
kcs
apt
nfrags
pOut
FDIR
mreq
munmap
phyid
Sig
##AGCC
BTCOEX
CMDS
nfb
##ysc
pokeBA0
ifmsh
##23888
dbll
ethport
BCState
kreg64
##olarity
udpl
COEFF2
LIF
TIFM
chctl
##Height
db9
EMPHASIS
softback
PUCHAR
oreg
Reading
cover
##ynchron
##usable
cmdr
Resetting
newskb
between
##Ord
0xf000
lockspace
crs
yield
##router
##SCB
IFMT
PyArray
cqs
ether3
socinfo
STAR
tcw
igu
gaincode
trips
sgdma
BBREG
Support
##Notify
ems
AC3
XHCI
mrb
blkoff
ump
##current
graphics
USBAT
625
HOOK
msm8960
LSM
vgadev
0x000000ff
dle
##Exit
##Row
camio
##iversity
##xfer
romptr
CTRL3
0x0124
##EF
pids
0xf4
WriteISAC
pcimem
##OOP
padded
0x0ff
ceu
qca
INVALIDATE
##icient
REN
16bit
dpcd
cwq
bcopy
med
MEMTYPE
bitmaps
##7f
CERROR
pciex
SNMP
ksm
##21285
##search
LLD
MULTIPLY
asix
##elp
##PIN
plv
DLY
PME
ramfc
##CH70
srm
iotable
##Widget
archive
areg
requ
jprobe
xcvr
CORES
pAdd
##PU
kwq
GX
##cast
CIFSSMB
dwell
ITEMS
redir
0xe1
##3107
lpddr
ter
tmout
MsgLen
pay
gtm
taken
wch
##HIGH
type2
lda
##neg
u64temp
uart0
pcount
##7F
##33c93
sse
fraction
uPD
g1
##Parm
mdwc
##115
SETS
##CtlBlk
usbtouch
0xa8
76
MPCG
ALIAS
abyKey
rhine
TXDESC
fmd
htt
YDSX
MEASURE
wmip
##ekable
nonseekable
SPP
##Sem
bh1770
guint8
idesc
dnet
cs8427
ainsn
sclass
eras
readahead
timeline
TVMode
GSM
lasat
LSI
##bn
##iders
fwspk
nbuf
0xf6
BDEV
##F1
ALTER
marked
##122
smpl
RXC
nu
monpriv
atid
lcl
##ARSE
TIMER0
##RQ
MSE
hack
scache
dp83640
IFORK
Linux
kbt
##full
rt73
rt73usb
bregs
RDI
clu
antsel
mt9v032
hsw
reporting
##10x
08llx
vop
eic
rt56
xz
sglq
Retry
arvo
LOGP
##ICITED
##XPath
setcolreg
cch
MLQUEUE
TOO
dspi
bnd
emulation
HD64461
##Com
##9887
##210x
tmp32
tempor
ptr2
infl
STAC
ATL2
##630
npar
LUMA
ph2c
rxdr
IFX
##Normal
##RA
hpf
fatent
inverse
len1
subvendor
##timing
streamon
siblings
ary
0x100000
wolinfo
mpc85xx
writers
LONGS
##Track
ipbmap
catch
SECclass
TERMINATE
hsl
nct
##lems
cprev
Session
##UND
terminal
ULTRA2
##470
##iers
INFORMATION
dte
BLU
hpage
ISPCSI
Search
spread
blockpool
bcr
JIFF
vbq
pMlm
ENUMER
fse
hashtbl
overlays
nth
antcomb
hecc
pcal
Window
pxor
dqbuf
##clean
##SAM
checkpt
##Confirm
pDst
keyword
pcnt
notrace
##270
flags1
services
palmas
bytecount
FsmEvent
tcfg
pn533
xenvif
##xi
str2
##ENAB
falling
DOCK
GO7007
totalram
EXPIRED
PULLUP
mxl500
##FAST
mls
hwtid
kk
BTFIXUP
PEX
sblk
All
y0
htod
DBM
##Router
PTYPE
mfunc
Initializing
triggers
##ni1
CMX
IGU
l3ni1
dataout
##UPD
routine
pteval
DMIC
chipnum
wrm
ps3vram
ak4117
Watchdog
tx4938
owners
xrcd
OFST
components
pingpong
##4500
##Dump
##890
##IGNED
receiving
Px
0x75
irr
##Gather
BTAMP
hcryp
l3num
1200
ps3fb
ds1307
TURBO
vesa
shape
##ag12864
cfag12864
Iobase
cfag12864b
tsid
retv
skdev
KPROBE
mnp
stv06xx
pcicore
##ADGET
osdmap
ffi
ushc
readers
FsmChangeState
sequencer
##wt
##illed
REORDER
ltmp
3990
uPD9840
##32X
##PCTRL
TMS
ematch
Part4
apds9
##R0
fmtdesc
time2
it87
##WINDOW
SIOCSI
##ISO
FREEZE
ALE
##Edge
ATARI
PORT1
11Encryption
PREVIEW
tmp64
dcfg
SYSCFG
ORDERED
##iler
treble
xiic
##ETRY
AEQE
Zero
outpath
##prise
sysex
0xc3
STATISTICS
relation
strategy
0x0101
rnum
GRANT
AIN
page0
##x480
lem
##itect
buses
##251x
##vco
DEVS
DESCRIPTION
fio
##Single
bigmac
##ENTION
##CR3
WRW
NOOP
HIT
MV64
CORRUPTED
madc
vzalloc
##mdata
fcomp
M48
SYMLINK
CHILD
mt9m001
Pos
mehci
cfgs
swsusp
##mg
Cam
bP
getprop
SPREAD
##WOOD
##100k
gdth
BITMASK
osl
d11core
arg4
0x1C
EGPIO
framelen
sdla
ISTREAM
recon
ucb1400
##ina
##ESA
4X
taddr
PLOGI
##inger
mus
fm801
CHAP
lbr
##uit
eprom
MASKED
produce
rdsdebug
0x3fff
##8888
pxmitbuf
##480
actu
##lav
##tas
vbr
##RegDef
fpi
wild
CIST
##DECREF
DELET
##PACKET
RXTX
twd
aeb
SLICED
WIL
WDTR
HTTP
SYSCONFIG
fiber
##oth
myid
##DWord
##31XX
pWDIC
pWDICtx
intx
prg
PCL8
xgene
##1300
UHS
iwdev
bssht
RFPins
Speed
writeable
PUBLIC
Peer
valuelen
vclk
acpip
amix
##621
##Rsn
IPSTATS
##2lan
srclen
wav
##JET
rdwr
CLOCKING
##graded
##urrent
##7230
boxes
FFS
increase
##FRAG
##540
ssthresh
HPH
Exception
ds16
dfp
ham
WPTR
vbe
numpages
gpiod
timb
net2280
iext
rail
radior
radiorev
rflags
autod
##s1
tdm
0xB0
input0
jb
addrbase
##STICK
EXC
copies
gsbi
##240
GRETH
RPTR
##Cred
lbm
motor
isp1763
ATTEN
Filter
sgp
ordinal
93
pwdi
Drop
DEM
coup
saif
0xac
lobj
i2sbus
namebuf
cregs
##ava
##9090
calg
##Qual
cout
0x7e
ccnt
FRAGS
0x69
VERS
IOP3XX
fall
spt
mdic
Depth
I825
##Generic
##bdma
spx
##ACING
c3
frob
mio
reqlen
tmp3
blkh
Bulk
CDEBUG
xc5000
expansion
hugepage
FYI
rtap
MX2
poh
##register
dqinfo
fpos
gcv
mcp251x
analy
IPVS
merged
vxlan
bstats
ENTR
DIP
##Symbol
Poll
moc
rs2
Storage
dmamap
eoc
most
An
Act
PHYFLG
D11REGOFFS
##ives
##834
fcntl
vlans
kiss
lsize
boardtype
hcam
installed
bootstr
chi
timeper
DSSDBG
timeperframe
##Space
##liable
AU8522
wd33c93
##INST
uKey
##timeout
ISLNK
Second
##olt
Information
Qo
##FFFFFFF
ak4531
uname
pehci
iamthif
DMD
##StaRec
##cdiag
addr4
tasklist
tcnt
##192
later
mounted
PSIZE
entryhi
Unre
logs
vpu
0xc1
pcicptr
##YVY
optind
SLIMBUS
rcom
r14
32767
NVRead
nr64
gui
##abilities
##ICATE
marb
at91sam9
rti
sampler
voltages
##380
##ETOOTH
sigreturn
codepage
ecr
BLUETOOTH
VGAV
0xf2
rcvidx
cqn
##Aux
HINT
aout
Tuple
txgain
nv40
##WX
UNCONNECTED
09
segnum
hwrng
effects
plvds
VIB
madt
lacl
hwtstamp
##180
pcist
vbt
##arrier
dly
serialize
acpiphp
Sector
XSCALE
dst1
##Spec
tristate
pmi
rxbd
##Position
##Btamp
ipip
Disconnect
instances
KIND
pingroup
PROXY
##ARENT
spi100k
##805f
##Dot11f
f71805f
QEM
0xa4050
ocd
iint
##CHN
RFO
pCurrCard
warp
uarts
verifier
inarg
PHYRegDef
chdat
crev
UYVY
ogg
##647
kuid
##ATYPE
wreg
nodenum
READONLY
nfss
mfbi
##Scale
IGMP
188
Cor
btwrite
##c2
ASB
capidrv
##ROX
max98088
##enci
pdg
validity
armv7
##OLA
HECC
WM8990
TXE
##BlockNum
GADGET
provided
MDC
##OOT
usb3
##54n1
##ROUGH
rj54n1
allmulti
mdma
##920
msf
ick
epio
limited
##trail
Adding
expo
Model
UPLOAD
ip6h
mpc5121
0xa4
ADT7462
M48T
WriteReg
matchinfo
UChar
candev
grctx
##2005
entities
W8
MC13783
leftlen
##3780I
plchan
slack
##dataref
Dummydataref
##NTR
res1
unitid
isc
EMUX
flexcan
swim3
EEE
pmm
MONTH
IMA
SVM
##menu
sr1
##DROID
corner
ofsAddr
pnetdev
##DING
##atial
locale
##9111
DT2
frees
mmcif
CFI
l2l1
##Tran
SUBSYS
managed
##Opcode
##fter
mems
pciehp
##nam
pfb
##jf
minmax
synt
##TEK
##Frac
queuedata
rcvegrbuf
F71
spitz
dad
##81D
TXFIFO
WRITEBACK
##Di
##BBReg
##NODES
FORM
rets
##OCOLOR
WM8991
FIXUP
FANOUT
SFR
##ably
STAT1
procname
WRITING
txf
2500
training
keybuf
##83820
##92d
0xb4
##bcnt
MATROX
bssidx
RINGS
nxt6000
failures
eepro
RFCTL
CONTINUOUS
PSEUDOCOLOR
tic
TWI
LED1
##8XX
IRQMASK
fpstate
ENCRYPTION
node2
m2info
except
MPDU
mandatory
1600
##nx
ANDROID
Analog
FAR
##INF
vesafb
ITNIM
SITAR
regdata
EXYNOS5
si476x
softing
eError
cs42l
Revision
tcs
##Trigger
recvmsg
isdb
ni1
##minor
ethertype
ICP
fhandler
0x00010000
##cell
mt9t031
WHEEL
tus
templ
##93X
xmlXPath
PMAPMD
qmgr
ippp
vMgr
TXPWR
##itude
##Connected
pContext
RUNTIME
INFTL
rfatt
KS88
tfr
##H2
pose
USBCMD
##6410
powerdomain
ORPH
##Fsm
addrp
##stime
##icated
x509
sysdata
osm
ppk
##Page0
ooblen
Us
dgid
CsrWifiRouter
##strt
0x3C
va1
##Idle
contiguous
cfilt
NW
BlinkTimer
usbmidi
Dig
ks0
##member
smsc47m1
dfile
absolute
##Env
##aui
8255
##VS
prx
freez
veu
##Org
dtl
SNAPSHOT
qcrypto
MWDMA
c7
##factor
##ISTATE
001
NPI
afi
##idr
vmid
cad
##CARD
temp3
raid6
dB
SRMMU
DME
flowid
CHARS
circularQ
soff
##ments
CVT
0xF8
monitoring
1x
0x3000
##D4
apbs
camel
VT1724
thresholds
##oC
PORT2ADDR
cob
lineout
MLAN
##4245
F367
PARENB
fputs
577
vmaster
##Equal
##DST
##DataSize
xr
UPIO
UE
vfi
ac97c
gmxx
prli
##BufferSize
xattrs
MGT
##d2
pgtbl
CAPA
##itecture
rpmrs
##PING
##ILITIES
mmcr0
MPEG2
adau
pll1
QTD
78
taked
Part4Port
tmpval
sbe
TAL
0xdd
##372
##2ns
rdm
##j5
DEBI
vp70
upcase
csb
NOTE
CLAIMED
SRIOV
nonzero
##Traffic
##ritical
##jf8007
va1j5
va1j5jf8007
size1
READING
##SIDE
##IREG
cia
pIn
##pts
crw
tids
rlc
rt2x00lib
Accept
mm4
pdus
##MTAB
pptr
ql3
MGSLPC
##esh
##HeaderSize
icl
sbmac
##INGER
##Nr
w8001
##locked
pScsi
vdevice
MPQ
mhcd
lpg
its
PSTATE
pset
PAC
##acketClassificationRule
taskmgmt
9P
bssId
##Area
CAB
rcr
##coder
avs
##16A
pcf85
tiny
dcssblk
portdev
netpoll
##CHRON
ANON
srcp2
btemp
csrRoam
cmdiocbq
mask0
hsu
Mpi2
RESOLUTION
bootmap
CTXT
##T2R
##W6692
uart1
##PORTCNTR
QIBPORTCNTR
SPEAK
UCreg
tft
nops
##Dirty
10s
TimerValue
04lx
Lu
##intpipe
edges
meter
CTYPE
LNA
usa
bclink
cpb
THREADS
##Gr
ip22
testmode
pSir
Beacon
ISTA
expDiff
SUPPORTS
REVER
##Abort
NUD
powerpc
50000
##FID
##qos
pm121
pppol
Shdr
spaces
pobject
negotiated
STAG
pList
INPLL
txop
##WI
S4
another
LIS
mun
PLAN
##lavor
38400
##FCR
##Vertex
esdhc
debi
PAUSED
pNext
##local
hdma
0x4d
##tract
GOTREF
iclk
##uclk
POLLERR
##utdown
##subchans
##Locked
MMCR0
p1k
Fault
ftm
pvoice
##chunks
rt2500pci
##DBLOCK
takedown
Parity
HEADSET
Regs
ROMAddr
FINISH
##ISMATCH
##reter
pwrite
##WriteE
DRQ
##18XX
DURATION
##rf
##OFD
##icant
tev
tc35815
hypervisor
##OCKET
NV10
POSS
clid
BlinkingLedState
0x000f
sniff
##3510
vhdr
mt312
intelfb
sigma
NETJET
td043
You
##939
DAR
SHOST
H2I
Ctl
addr6
##rcv
hflip
smapi
pctxt
ERESTARTNO
pfifo
ymm
##agle
nchildren
s5pc
2X8
cdbg
##Swing
UNLOAD
pteg
PFNG
##93x
##idon
TMC
shim
LNET
##RegBits
58
pstore
DRC
bdevname
AdapterControlBlock
Requested
nds
##AI
##URB
##WriteByte
##968
orc
GRBM
revmap
inprogress
ingress
ho
skb1
##GD
##7c
dvnode
midc
##BAND
##iucv
targp
##Relax
##M2
spectrum
##bio
in2
timedout
WAVE
nfnl
RTXAGC
##defined
0xb2
rxdp
bri
about
64K
bcm47xx
l3l4
0xe8
##tm
s5k4e1
##ancel
whence
BACKEND
cCP
##ky
04d
##Meas
cCPacketClassificationRule
SH77
wind
##AGN
newblock
sbinfo
LUA
##mits
nfs41
##FH
K1
##Pattern
coded
bpw
ESTALE
sane
hidinput
oplock
rover
DeviceState
hfc8
hostapd
au1xxx
ANENABLE
StatusTypeDef
##section
isap
UPDATED
POLLWR
w83792d
BCH
cii
nextindex
btstack
dgram
eapd
pgpath
hardirq
jornada
##Success
##ETIME
compose
deemph
sunzilog
Cl
fcnt
dm355
##K3
ksock
wm8753
kasprintf
16384
##THRESH
##OUTE
MATRIX
xmlRelax
Supported
XDR
##alet
Elf64
tspp2
AVC
law
B2056
vss
0x57
oldfs
##ufficient
PORTSC
HPS
##atterGather
imag
BSY
se401
krr
r300
mpm
PPC64
node1
pmif
hmc
ENOM
wcn36xx
UAP
URBS
##ne
NEGOTIATE
3590
radar
rtmp
AD1
ENUMERATED
##TAP
##irp
cERROR
INTERLE
K2
spll
EXOFS
TWSI
portsc
scsiid
82xx
pem
##24XX
83XX
inflight
esize
LKM
ule
0x8b
pioavail
m48t59
HPOUT
DIT
context1
HOSTDATA
Monitor
debugf0
gctUINT
CFA
SWR
##mail
##cket
cifsFile
ECKD
gcr
ten
fbr
tried
##dss
SPOS
DESCRIPTORS
RX1
CAIRO
clockdomain
PARODD
Thermal
fpreg
ID2
HEART
ak4113
102
##Dm
sbsec
8021Q
##CONT
Xt
AES0
##27x00
smp2p
rtl871x
VU
clrbits
plb
tHal
##ISP
Ss
rc4
##Country
pacl
##works
bDescriptor
##A16
CLNT
pwq
GMXX
udplite
KIRK
KIRKWOOD
##message
bufmax
##LECTION
##agc
Kernel
obex
0x004
vsp1
eiter
hwperf
rpn
0xa2
currently
SCTRL
dvr
S5PC
lscsa
##tc
##BRK
decimal
DCA
##drop
CLOCKS
##UCTION
doub
##7310
fman
setmode
SEEQ
klass
##Api
qtr
LKF
##855
mem32
Func
ns83820
##44S
CB710
ISPCSI2
presence
MC44S
SGTL
MC44S803
eloc
SGTL5000
cmd2
HostP
##Caps
irq2
optptr
mcasp
##99x
##enuation
newpage
ste
TX0
mqrq
Program
ureq
renderer
PAPRD
Trigger
##6fire
ske
rxdata
rs1
sbal
srs
Att
Special
ALIVE
PO7
LCM
i0
axes
##uncate
halbtc8723
thumb
modname
rx51
ibmasm
ior
INTX
tempal
prescaler
macvlan
CONTROL1
0x8a
ASUS
reqp
BTFIXUPSET
bfree
mptctl
Vector
bif
bReg
##1011
STARTUP
transl
##onsole
TRID
0x8000000
quiesc
ulpStatus
0x00000003
hfp
baseAddr
##UPLE
100M
##bf
##ANY
wpal
bootstrap
ZD1201
preinit
migrat
iflist
NAMESPACE
MSGOUT
tv64
jmb
TX4927
##bie
Write16
vpx
scmnd
readable
UINT64
dos
m32r
OBS
spacing
##EMCS
upgrade
tar
dctx
ENCAP
DSO
ACS
FM3130
keyp
optional
libc
appldata
External
LAB
##fds
cfp
##Sample
GPM
readlink
s5h1411
htb
poseidon
##E1
WORD1
cxl
W83627
##bWriteE
##BRIDGE
220
patterns
0x95
corrected
pls
##oving
TEI
locations
BTTV
Put
BOOK3S
##leaf
irqfd
slist
18M
reg8
MSW
IXP2000
PWRMGT
PCIM
tfrm
nelems
ICOM
TX1
SHT
FCT
info1
0x040
opti
updating
hspi
cns
##lia
nicstar
SMA
virtfn
ndata
SKY
inti
fcdiag
llog
hwlock
dtlb
ilock
cpkt
isid
dcdb
##ontal
VALUES
MFG
outpw
changing
RS5C
sacked
ptes
vstart
16s
v8
reqid
##Screen
##Ali
tfh
facility
BUZ
Pa
ASIC3
MCG
##810
##semb
isk
##yscall
##Tlv
trusted
CSI2
##begin
ADT7316
0x7d
##BEAT
RATEMCS
##Misc
mm3
##PRT
contact
pQ
vinfo
buflist
optimized
mv88e6xxx
##cts
errstr
PESDR
bnep
hostt
ICUCR
stringset
ADP5520
cata
mhdr
iadc
##VALUE
erased
vpaths
W16
##esis
##125
oaktrail
WARM
BIF
VPP
##PID
bma150
precvbuf
1d
mop
replacement
##2uni
SETIREG
urq
SIOCGIF
unthrottle
isapnp
DBGP
mt9t001
VTX
##BufHead
460
bcm3510
rollback
PUINT
WRITEL
CONC
##fish
beh
IRQPRIO
sticky
##v210
CEC
##URR
##1210
##emask
##Method
usbduxfast
pun
positive
tcam
8lu
Tcl
##LUN
##ZERO
sysreg
##balance
amr
Intel
NOWARN
RMT
dman
TCODE
xbuf
armpmu
OMR
vflip
##Tdls
##iface
##Chunk
SYSCTL
ulog
ENCR
ATL
##fields
##GRAM
vend
##driver
mgm
stdin
sums
Expected
edi
sizek
0X
##XIT
apc
debugging
dtp
als300
Mailbox
netiucv
PRM
emu8000
folder
ictl
ndisc
##ario
wed
entered
fflush
##ving
PTB
ivor
##uppauge
##t583
rc5t583
enb
rev2
INCREMENT
memfree
WBC
vdc
##matel
UW
prq
Disabled
##NER
extcon
ia32
ndm
oprofilefs
smsg
nec
sipx
hisax
migratetype
QIBL
##FPE
ntfy
##Flush
##ampling
whit
inside
XDECREF
bass
##ENAME
require
mt20
imem
thermalvalue
W83781D
OBOE
usb6fire
msgqueue
cpm1
neon
clkevt
TCE
VPC
ControlvWriteByte
txlen
BLOCKED
ar9300
vbflags
usize
##Disp
nowayout
FDMI
qidx
EFS
b1dma
inout
pfd
SAME
SPEAKER
##Det
ad72
timer1
MESSAGES
pItemSSID
grpc
pstClassifierEntry
PROPERTY
rx8025
dmem
txdl
cpaddr
world
bpq
SDEV
77
Only
iwcm
GRAB
rocket
DOT11D
0xf5
##ERP
##ENGTH
agino
scabase
##Opts
ATN
FOUR
pti
EM28
tj
gpp
isdbt
INODES
44x
##Close
intspec
##thresh
TRIES
##det
##Usb
dirb
pSmart
##tings
##Board
YDSXGR
eem
vregs
police
##zel
uioc
Frequency
msiq
OPENED
##ABORT
##Server
max77693
0x7FF
cnx
0xee
rbtree
anode
BCM54
Stats
hbm
ASYM
newp
pgio
0x00000100
KCQE
pci230
##WM
##964
pread
fwinfo
iunlock
e0
filtering
mvsd
vpll
NPORT
##8152
N2
AIF1TX
0000
##4210
COMPOS
gef
tweak
eql
INFINITY
##parm
byTop
CRC32
KMEM
##ialog
##uctions
FILEID
IEHDR
IDIAG
##exant
p32
extractFloat64
##71XX
##TXD
hypfs
pstatus
scbptr
XGIfb
nwords
LRU
##aker
##133
IPL
ADAU
roles
##ISCSI
outreg
REV4
salt
inptr
##haul
ioasa
Ld
vot
plpar
dmadata
fbd
je16
KN
lea
##861
qhead
MISC1
##dca
11N
AIC32
##fdm
ASPM
below
newsock
SIGIO
DCON
Ht
TOPOLOGY
rxc
SYNCHRON
TFT
##505
0x97
dpy
fru
ahead
##OUL
##8010
GMII
##dw
##resent
ADDBA
WVDC32
##925
pVos
LIGHT
suites
FULLD
unmute
pint
l2p
Den
dblock
ippdrv
doint
cfg2
prc
tsq
WBSD
regfile
UNM
ivtvfb
interpreter
atk
4095
gpadl
vsk
cafe
xst
##MEDIA
##FUNC
ethdev
0xa6
lfb
##Diversity
pSeries
DREG
sdmx
##35390
Loop
value2
hdlctx
HISTORY
##alette
Iop
aps
##IMC
##CON1
mdn
tmdev
##7XX
lp8788
iolock
fex
##CommandMailbox
xmlRelaxNG
##mpriv
attrlen
p2pie
curp
dividers
##CCB
pko
psi
acknowled
STRIP
marim
##Keys
marimba
resc
CR2
Task
##BX
##2Config
##83xx
CsrWifiRouterCtrl
deallocate
##NED
0xcd
cloned
msgr
rs485
##rindex
wka
YUYV
tup
focus
degraded
sqrt
ZORAN
##6800
##orth
wscale
netobj
Fout
##INC
vsock
bidi
##PIX
##ixer
tlv320
qword
NCQ
GETH
arrays
sunrpc
modulus
LRO
##Put
DENIED
##875
Rel
fileid
dspcntr
##RsvTime
mtds
cm3
vsm
nick
##IMUM
##ARGO
vsnprintf
pll2
##Firmware
hio
si2
##ERIAL
AVER
cce
excp
rtl8139
##Indicate
AdvRead
EPT
uPD98401
ERRSUM
dma8
GPS
didn
##apse
##DecMode
##PAL
##sap
##ITOS
Null
##InputClock
##3XXX
THIN
Skipping
ZR060
loginfo
##308
tda827x
dabuf
gstrings
MPUI
fired
PCIInputClock
rawstring
TPS650
idx1
gnet
##PCB
##ETERS
subRL
KEYL
mx31
ACCOUNT
dirtied
2K
##elper
0x79
instructions
tda10086
##rintk
24xx
DFX
nfsd3
SPCR
HANA
RELOAD
irqen
COMPOSE
wrptr
gf2k
trapped
w9966
AER
EFB
KEYLARGO
hccr
##itle
bd2802
##A4
vcap
LTC
PREEM
ALREADY
V9
disconn
dprint
bMaskDWord
Long
STY
pTD
##Mic
MI2S
CIM
VLC
##VAR
##TX4
Self
##690
ar5416
##mclk
SIGKILL
##mad
xfr
##TOP
failing
8K
##1500
Led
sigmatel
xlr
wrk
totallen
##13xxxfb
UNDERFLOW
s1d13xxxfb
coupled
##sck
##LB
transmitter
replen
icsb
##Rcv
edc
keyiter
nohz
##CtrlBlk
blitq
BTFIXUPC
writev
hwqp
##Content
##Measure
cbl
efer
startdev
##oked
Statistics
TRIM
4G
nbox
qout
##Conn
SDTR
DPOT
##oload
vmk
quit
##sigs
SSTAT
TU
vapi
unwrap
##paged
##OGE
##iron
##Rd
netup
LPAR
rsr
##772x
NCD
##880
jzfb
AMCC
RAP
lm87
MEG
inodecache
readbuf
MC13
Multi
##Box
actconfig
datasync
##8860
WriteDOC
ISSUE
##saved
domid
transactions
##303
fwrq
PMINI
MDI
gue
temac
INCR
vpc
##ugepaged
khugepaged
BIT0
amsdu
Thread
10M
algt
One
tsr
accessed
SRST
LOCALS
estimate
QUP
HIBERN
##alibration
pybuffernd
exthdr
it821x
##font
PIL
outptr
alb
##APP
brec
longhaul
PADDING
##isec
regb
##achable
##341
Flush
rmm
##ynth
transmitted
reduc
INTSTAT
macii
tsl25
##xc
iow
FMTBIT
##40MHz
525
##9260
rcvmsg
qdss
##Suite
##ander
##pp2
linesz
##HOLD
memparse
xaui
DBGLOG
##Words
135
ad198
uci
continuous
##TRIG
Fix
##1340
TCB
Allocated
mrec
##TAIL
irqaction
CX88
0xb1
qb
##tate
UTM
##Alg
established
WM8985
TODS
acquired
##otonic
MPLANE
INT1
dry
PNO
bittiming
##threads
FOREACH
mdnie
three
da850
r13
mpoa
##recated
REPLACE
N1
NAN
prph
decrement
paca
rgn
##Term
PARMS
krp
CONF1
ENOEXEC
##1ADDR
##vector
fen
UNICODE
maxbytes
0x005
tw28
TOV
HWE
vmk80xx
dlog
AUTHENT
cs5535audio
CIC
##GO
##DataRate
##MAC100
CISTPL
##ot11d
UNST
protoff
##XL
strtab
sgptr
IBA
##124
baseband
ofp
lmv
digestsize
BSP
rmode
formatted
opl3sa
q40
ghash
INVALIDDATA
REALTIME
##eregions
dregs
0x9c
BEEP
yl
SPROM4
curchan
apll
DCM
EMB
##CFG2
##Bitmap
DBRI
##batch
UNAVAIL
pl011
1f
DMAE
SCREEN
ncq
##91x
adp5588
Ethernet
ipack
WL3501
SAA7164
##inet
##944
PULLDOWN
##Os
tod
mvnet
SSITX
##Return
mvneta
EUN
SESS
STV6110x
cbaf
maxh
AMR
caifd
##OMB
rfseq
LEC
##prev
qbase
##Wlan
swing
STREAMS
hypercall
Pause
DCDB
usecount
SOFTAP
FAS
aoa
QWORD
##1c
mvpp2
##x5
SNAN
##CON0
##11H
TSPP
amt
GETFIELD
dsm
plc
0xd8
mc5
SERIO
cooked
##errors
EZ
##711
bpdu
NBPtr
lex
sidr
conexant
##OCR
##rbase
wavefront
auxdata
CGEN
bed
MULTIPLE
getblk
##ATEG
vsd
RK
subcmd
mdname
avd
schp
##147
at24
gctUINT32
remote2
AD1816A
realview
Initi
HYST
pmksa
nodev
handling
imxdmac
boardinfo
PRC
TALITOS
ITT
php
dchannel
##Component
debugreg
##LCR
MARV
perfmon
##sip
SIDE
0x1B
USB2
sptep
gsl
callout
speeds
WEAK
##Pages
##Fix
spic
SIFS
##uncs
bIn
oldlen
rv6xx
##Engine
PCD
kregbase
lnode
nonemb
pbyData
Mpi2Config
fns
NumberOf
LST
eol
##641
PWC
##Attribute
dbp
mountpoint
eco
ipcp
mptspi
LVB
xtime
guts
OH
VLV
0x011
ldBm
PTG
pfile
rwnd
nsegs
##usage
r3964
fak
divas
0x0005
tSirMacAddr
public
memsz
pdid
edit
##buart
##REJ
##enario
bdl
sioaddr
##hrough
NEGO
epic
retr
##irun
##EAFSR
indev
subdrv
CREAT
p54spi
tolerance
setpoint
res2
##uage
pmadapter
hvm
##SMT
IRWX
ALLOWED
wiimote
chunksize
ALTERA
u300
roothub
tmode
PARAN
dsps
uah
isl64
mm5
LDST
csiphy
ONb
##MSEL
254
qnx6
##ReqParams
rhdr
##App
##msgs
CNX
DataLength
amd7930
mx27
##Unlock
regoffset
pseries
pscsi
fdir
1000T
SONYPI
m128
unrecognized
##EthHeader
##SCHED
xrupt
##Cfm
##1030
##hav
donor
SPLL
writebytes
WL12XX
audigy
NPR
crush
etsects
execve
0xed
chs
DIVIDER
aacirun
pI6
MB86A16
KEEPAL
rating
##Phys
ISER
servers
Gain
R39
vty
##721
chset
Selected
0xe4
gcmk
sscr
COMPOSITE
##P1
mc7
##Wifi
AT91SAM
reclaimed
bmask
pentry
LGDT
rbu
##ariant
0x8e
UVD
bring
qopt
##Mark
iomd
82598
cyber2000fb
LGDT330
pdc20
DME1737
JE
cfa
##1A
##IMR
prefs
KG
err4
UTMIP
ntc
msm8x10
Convert
cfiq
isolate
EAF
##XC
i2400ms
fpriv
rindex
##wire
bufferram
PAGE0
##Pin
sgbuf
ads78
##Rid
TCTL
nbufs
MC1
0xe3
##Play
setscl
acces
10000000
fp0
sorted
BEISCSI
largest
PCAN
##EK
mraid
DS27
ramin
INTERLACE
sPathInfo
WBCIR
0x59
##Statistics
MR1
##ow2x
PMSG
tPow2x
mbxCommand
##itf
##dsk
##dsrc
uac2
PMP
COAL
##8821ae
##Bl
etb
rtl92ce
DATAL
INITIALIZE
AVCodec
pTxBlk
##5200
HWCACHE
gmode
##zip
pnext
##TERM
LCL
enables
CORE1
pNew
getname
mapcount
busnr
smb347
DMA64
skbdesc
nrpages
HSI
dctl
smba
SLMP
##FFFFFF
timekeeper
konep
##lpha
ISI
eCurrMode
Modem
##covery
##Drv
ers
PSTx
IISMOD
TCVR
unin
idx2
##Inode
stock
##unded
pstClassifierRule
HANG
columns
0xe5
RADAR
rack
##Begin
cc770
##PLT
dscc4
##Date
ts2
relsec
vt1211
procedure
VMC
egress
mqp
Descriptor
lite
##Vector
##2tp
##HTInfo
##YPbPr
das16
##gap
##u2
mts64
T5
n0
cxusb
##892
scalar
doubler
mfield
COMBO
sunsab
0x00ffffff
##CAN
ipsec
SHARP
dccpd
hwsq
lrclk
1GB
##348
catas
LH
rxk
pdac
ATP
ANEG
ucmd
##Delta
arbel
sseq
0xab
iosize
FU
HOME
MIRR
PTW
aptpl
ALM
dsisr
S5H
recvd
dmanr
opl3sa2
##9650
acpu
pIes
##alp
port2
base0
lp3971
1LL
pDeviceHandler
fref
0x002
player
mptscsi
0x00000004
mptscsih
EXCEP
coreidx
msiof
ChP
txctl
ac3
hslot
R3964
##Search
PRID
shutting
gms
bbatt
isl2
AVR
0x02000000
PTV
##Values
sunxi
fmc
##ilips
PIXELS
nforce
tlock
setb
##place
cop0
wda
##RuleIndex
##View
##Monitor
INTMEM
Uxxx
VFLIP
DBE
bds
##Burst
##Auto
##fc00000
mfr
##21013
emif
setsda
E2P
sparc64
fft
pcsp
targinfo
combined
##75375
PROCESSOR
ccfgptr
qnx4
TDA1004X
pspoll
PTJ
ATUX
pcrypt
##pz
##325
calculated
INTCSR
PORTSPEED
CBE
INITIALIZ
aca
STRT
##PHONE
BMC
sweep
##9640
STATUS2
dt9812
rsnd
IMPL
##3L
scx200
domainname
Layer
MISMATCH
AU1000
Ready
Bank
pca955
##oip
##INATION
tapan
mtdswap
FSP
0xdb
##FRAM
hq
vpid
##ias
##imity
tech
slob
dmaring
piobcnt
pTcon
WOWLAN
82575
krait
vmcore
owning
zi
hga
backward
CENTER
NV03
pxa168
FILT
S626
TP6800
##AFE
##cookie
pSettings
tout
mb86a16
HvLp
Ssfdc
a3dsrc
##Orig
tra
NAMES
PADAPTER
0xbe
##Factor
##ONIC
ioff
##ctionary
material
byRx
EPROT
##QC
TxPower
inj
flicker
vfh
##obe
ddma
interpol
RX0
Cre
initgain
IMX6
statbuf
##asc
exca
tell
CS5
EXTENTS
fctrl
wval
EXPL
rbm
numbers
ebs
BLT
xgbe
##alty
phub
sdstd
path2
##Tail
Ehdr
100FULL
DMM
capab
CONFIGURED
qdepth
rccal
pchnl
GIO
ppgtt
##elica
##PEND
##pro
##mob
cpuctx
pwm1
JTAG
Normal
cyapa
##pti
cuda
##LBL
sdcard
bq27x00
##ctype
kgid
FMR
##cri
DEPC
pm3
cmv
okay
decrypted
4bit
##oal
sx150
571
REDU
AUTOS
##accel
##Stand
banner
CMA
Class
scbid
ModeRegister
##lades
##lists
luk
DMWARN
##933
WLEN
pwdinfo
dointvec
V0
recall
mwave
##ACES
duprintf
##Exist
CIRC
uinput
Shared
Fatal
##dword
scsi3addr
skew
SQUASH
AIC32X4
tcq
subdevs
OUT2
SSL3
PHIL
dependent
##oggle
VITER
##1940
probably
dependency
aha152x
ecode
pCoex
mr32
##timeo
l1oip
Remove
##dentry
deprecated
lookups
##Boot
IPIPE
elf32
lpb
pcidas
##dblk
redr
##AssocReq
Temp1
WM8960
FALCON
NFS3
TIG
PCHIP
G2
ocm
##BufferAddr
wdd
buf0
w83795
DENTRY
xmalloc
##1510
xsize
rtmsg
comparator
hexium
USB3
rdi
##551
0xf00
LLP
##Or
##MG
tempo
##lace
gtf
ov772x
CX2
##KM
USBDEV
xfered
##Disassoc
0xb7
page1
##escq
CFGR
pageblock
VIASR
4U
##rcnt
unhashed
gred
opening
LOGFS
PASS1
ran
pie
PISDN
hn
UTIL
##assis
soffset
74
vterm
##12m0
sn12m0
sn12m0pz
INITRD
isp1760
MATROXFB
rlist
##apr
i2c0
bcf
Slave
CRTL
d40d
QSFP
GtkWidget
sframes
reqsize
POWERPC
PRIx64
toupper
itl
Need
BAR0
unwritten
warned
DQUOT
##ius
PTX
##isr
sx150x
OffsetFrom
KRB5
FBC
cobalt
##alarm
msgsize
WLANBAP
RECO
extractFloat32
##ribe
PDM
##alm
settle
pfi
seb
mapaddr
GMCH
True
subport
##3020
GML
Drive
XDI
qtaguid
rew
AD7
ACA
Neg
valky
decr
ep0state
valkyrie
frev
sendbuf
subvol
BUGMSG
outqueue
zSig0
Save
bSign
SDM
PHILIPS
VITERBI
##Rf
unavailable
ARGUMENT
VOUT
eCsr
##FAX
syslog
s5m8767
eRf
COMPRESSED
##EDED
##16550
jitter
APPS
wdr
inttrig
setstack
MMR
07
MED
ctrl0
tlbe
MCHIP
much
##segment
usbctl
cancelled
nescq
##thm
mta
sidtab
##cid
##opulate
H263
VCI
ampl
invflags
SQUASHFS
##serial
l4k
##Settings
##STOPB
SIOCSIF
pppol2tp
##370
##Mhz
NUMNODES
wsec
ESI
CMD0
##ZY
theta
cac
##D5
##ALLEN
cmdbatch
SAMPLES
LOONG
LOONGSON
0u
##ads
som
##VENT
I8042
MHI
physp
winch
alc56
decrease
procfs
lm75
Pkt
##8231
MISSING
##sire
##igo
lmp
SDH
HFI
##unity
pcinfo
RXFIFO
POISON
bCur
UxxxStatus
1p
bCh
kmsg
netfid
LMIP
My
rdac
opt2
ctlblk
rpcb
Iss
mda
op0
regshift
0x1A
manip
##integer
##MIPI
SLI4
powerup
ftype
##beded
##LI
##200E
RFBI
TCF
FLL1
##SAMPLE
ifinfo
iowait
autoconfig
##CDC
0x6a
there
logged
0xc7
##1f
atio
maxt
CACHE1
EPROBE
vold
bufcnt
NEC
pktbuf
Disk
PCNET
v9inode
BTFIXUPCALL
##iced
opendata
PhysicalDeviceInfo
##rame
0xca
imx074
prate
104
##arest
REV7
voip
canon
BARRIER
##7131
HCC
mptfc
ifru
##agement
PORT0
pnx4
pnx4008
bHw
qflags
ctp
0xfff0
##Step
busses
bcdDevice
##toptr
uk
asf
copytoptr
##spt
mlan
RC6
##Authen
gv
ReadISAC
Busy
pii
COMPUT
BEL
CSTOPB
dds
##502
pm33
TXCFG
CONFIG3
pnConsumed
##Hd
resmap
psel
tlmm
##mbeded
palmt
clkp
vp8
ulpWord
IQCAL
##2H
firstblock
CT2
Initialize
behind
pcur
dvobj
FIRE
ReadDOC
PGA
setxattr
NOATIME
cqes
##LABEL
simd
retune
##eyond
##Entries
iwctl
immr
##access
timr
HEARTBEAT
lhs
fiemap
S3C2443
Signature
##close
##romptr
pwlan
##345
122
MDMA
MICBIAS
##dot
sksec
PLLC
ADDR1
##ATILE
Registered
CHALLEN
processors
##01x
##switch
LLCP
XON
##586
esid
I810
IOD
Rssi
##grab
uiLoopIndex
0xeb
hibernation
cmdstat
lradc
UCAST
B2055
mpol
ADV71
gate2
hpsb
equiv
difference
mconsole
##8cf
tegra30
##Descr
uas
##eel
AUDDEV
Mk
assuming
EBADFD
LIT
memaddr
CONTROL2
UInt32
sbr
COLL
114
GRH
APDS
ilf
irte
behav
opus
##ANCED
##p2p
sbdsp
POLLWRNORM
Ba
##icom
gpmi
ATL1
MCSR
sic
##eff
ntoh
deci
REGNUM
##Be
AUDM
STARTING
##16x
##umbler
INTMASK
mkey
##peer
##TLEN
##ErrorCode
RPCRDMA
TPS65910
dmaing
fddiSMT
##model
iowrite32be
da9055
##Frm
##PHASE
ad77
sensordata
planar
ESCAPE
NPE
switching
Spe
##arate
mval
bbc
OG
10g
HT20
ak4
pcomp
##found
diw
##cise
INTSTS
##Specific
REFERENCE
##BF
CARDBUS
ofdmtab
PTF
fxsave
opregion
rxsubchans
pxm
clip1
##yl
IT85
R700
tstats
##8044
Obj
iref
##EXIT
SL11H
BALL
psh
mck
hashed
##41xx
len16
GY
##acam
SIC
ptbl
QNAN
##HG
##fin
DATAOUT
socdev
elant
0x000F
cns3xxx
deassert
privacy
epid
H5E
DELETED
MIRROR
##idden
chassis
##mplemented
regdomain
attenuation
##Sleep
##inition
AscSet
stli
VE
elo
##25p
##dential
LBT
cnum
s6e8
##ferred
ssap
40mhz
hest
OPTIM
UNLOCKED
EM28XX
##earch
copyin
proximity
wm9081
RJT
##Heap
##5011
##3550
extensions
sle64
##ommand
##9x
FLAG2
VDisplay
##CALL
unstable
ASSOCIATED
hex2
UNMAPPED
GW
cmask
aneg
##ynamic
truncated
##SV
l1l2
pyld
BPP
##refix
sht15
##Edca
##ampler
pfw
vmp
hashsize
QPSK
rth
SIU
WL1251
w9968cf
trx
PM2R
CPOL
hubdev
einfo
PELOG
curlen
pgsz
RESIZE
IRQENABLE
0x8d
forb
snaps
nullfunc
ben
setreg
rsz
PROCESSING
iores
edgeport
b6
swfw
frontswap
##xpsc
au1xpsc
54M
felica
prstatus
IOADDR
##702
capsnap
##6210
AR71XX
PDISPLAY
PRD
BEFS
eat
spatial
CHANSPEC
declare
quantum
tumbler
idlest
cblk
tps6507x
##imal
HORIZ
##Mid
value1
WM2000
##grpd
cr32
##a4
WME
LOG2
higher
bDescriptorType
##Poll
LAZY
PBL
ICBT
NV12
pbd
subreq
macs
BASS
LINE1
hwmgr
##score
bos
CsrUint16Des
LOLA
rtstatus
vr41xx
vfta
##TlvHCI
##ERGY
ICBTAG
outside
DLI
2b
##Lookup
audrec
HEADPHONE
##1374
gl520
evoice
##ERTURE
ncpus
setprop
PPT
seta
cs1
##Available
##CH701x
NAS
reduce
getreg
##EAU
KV
LUNS
RTSR
##u8
VMW
odi
##nfc
pmcm
##PP2
##INS
CsrUint16Ser
POR
##1373
##05
##81d
CS8427
0x0300
2400
pchip
cca
tevent
glb
s5pv210
resinfo
pscan
Operation
##TM
WLFC
ipport
##2684
ndesc
usbg
EOA
AMODE
POWERS
bugs
GSI
USBOTG
TRE
VGT
adbdma
mcq
##s0
##9320
carr
LANG2
##LS
##Que
##786
fldrv
##887x
astate
EOC
sfd
autodetect
UART01x
0x3d4
ctrlcmd
##equest
MARGIN
EXCLUDE
hycapi
efivars
EAFNOSUPPORT
##ibri
cin
##erf
slotid
6M
acr
0x6d
##HCIEvent
0x3d5
wpan
2ghz
permitted
idletimer
pim
##ITZ
queuing
cbp
nmodes
PTM
##leanup
pardev
uda134x
##PowerSave
uiSearch
uiSearchRuleIndex
insertion
##commit
AUART
##ntrl
PELOGE
NOUV
DIRSYNC
##iotap
NOUVEAU
vdm
pols
##PTYPE
19200
GAME
chainmask
##Reassoc
sou
prism54
piix
compiler
lm90
##sptwi
pmcmsptwi
tuna
config3
TRANSPARENT
setpull
bce
ctrl2
agbno
##xs
mm7
recomm
ipxitf
VDE
##cut
ATUE
bitshift
tcl
Show
sreq
##EPCTL
##Float32
5705
otherend
##PIO
##mols
m5mols
##lcd
lsa
Command1
##ISCON
urd
ar92
attack
MIU
hmacs
pNeighborRoam
erx
gun
execution
bcm2835
##LONG
NETBUF
cxt5066
scnt
devcmd
##clear
adv73
adjustment
##module
##Stamp
mdmreg
NCCI
UFSD
##ynchronous
##UFFER
querybuf
pcier
subctxt
regvals
##formed
rtl28
ramht
pSSID
##2fb
psgl
lcc
namesz
numid
SCIF
ov97
BDRV
nport
sre
##GR1
LSW
Red
vm86
##ama
##CRX
##fficient
If
ochip
##P2P
ctsn
insize
##ETRIC
sm501fb
PTZ
##activity
unconfig
dir3
CERT
Tim
rdlen
grave
iotlb
slp
MXS
STM32
AAL5
bt87x
robin
PnP
RS480
UIO
RXEN
DBZ
touchkey
pincfg
Idle
##Pci
##normal
btm
tfp
scif
HFLIP
logflags
##MgmtPacket
uda1380
wgfx
pfp
busi
compens
piix4
##950
alien
BSG
psif
##PAUSE
promiscuous
uopt
ser12
pNeighborRoamInfo
Jack
hwpage
uGet
Remote
qsize
##chnl
peri
DS130
discards
newxprt
bdc
GRAY
OFD
dib0070
mdr
Web
TEMPLATE
spool
##istat
GROUND
##k2
TXF
conf1
r8a77
digipeat
##rdy
rt2400
rt2400pci
pname
TCO
awb
SCN
FROMDS
##Order
rear
beyond
##MISS
FUTEX
WM8955
BEF
vgc
rqt
centers
oneshot
##QSPI
##1x10GE
SUNI1x10GE
SUNI1x10GEXP
cmpc
rreg
flowctrl
pcmdpriv
aspace
##Elem
preds
##Reference
FIS
##inum
hsd
avl
MFD
vfo
mir
SIGFPE
POX
BAY
COMBIOS
recursion
FLOGI
axq
csw
##undant
##8323
ZONES
##restore
ark
##921
chkdsk
huff
##STRUCT
taal
dio200
drvidx
##7432
Post
RESYNC
##INT1
HWS
EDP
1st
SMB2
gk5e
##Gen
PCAP
##PowerState
jid
ISPCCDC
ebda
PARAMETERS
cgdev
pipeconf
##DX
msm8x60
##arded
EVENTID
streamp
r592
UNREGISTER
M48T59
dmalen
COMPRESSION
einj
vivi
as102
ibi
cnext
OMAP3ISP
Aborting
0x600
cblock
##814
ccid2
tx4927
erasing
sil24
tea575
mmss
TEA5
AMIGAHW
Ct
pmkids
Appl
Aud
stepping
fimd
LANG1
ptid
DEEM
IEEE1284
mftbmp
responding
weights
ASR
pam
fesettings
rbnode
ASID
TypeDef
TimingInterval
DA7210
##HTS
monotonic
##Broadcast
TupleData
##sembly
dove
MASK2
0x9a
podev
hashlimit
drift
0x003
LOSS
anysee
collapse
por
##Ssid
PPTP
excess
##Nv
tda10023
BJ
html
physport
SCLP
MC2
HUG
COLUM
SPM
lowpan
CSR9
SRR
setg
PXP
icside
##bool
DISCH
ILK
eui
cqid
ACTIVITY
Attempt
Execute
ali15
ntsc
##prog
##BUFF
nominal
TVP5150
##hold
CLOCAL
MADT
rising
phnum
tmpcc
uS
pRSNWPA
info64
rfint
PREPAR
##ERMARK
RSCN
FINGER
cccr
ackvec
##SlotTime
##CP2
aic32x4
XOFF
llseek
##cmci
ORIGINAL
magnitude
##orina
skp
##ptrs
gluebi
##omb
CBAUD
mxcmci
xfrm4
0x0F12
DEBOUNCE
reopen
sysbus
CsrUint8
##mantissa
PTN
uwire
FERR
##8083
##6400
ddebug
##IDATA
MINI
RELEASED
ecp
VAL1
BACKUP
EraseSize
incon
CISCO
holders
compiled
bidx
atten
##ILOG
##enta
##CTL2
ldu
##IDENT
val0
rq1
pDot11f
mappable
ccid3
VFR
fdi
preproc
lnbp
GUI
inte
marks
##serv
silk
buswidth
odr
dt2
bq2415
coverage
sku
CRL
CR4
byData
nob
mptr
Empty
Stack
CREDITS
softreset
IT87
jwrite
##114
sli3
nopin
NCT
##wall
DVD
w8
##Loc
CREAD
VGAVDE
STRICT
0x9f
R852
disarm
CX231XX
pong
##8S
##Ms
compptr
SHDW
CX24
cpuclk
serigo
bCurrent
##lnd
##ADDRESS
PC300
INTMSK
RMD
##fsm
radiotap
sirdev
ibft
glad
##l02d
##Bound
lis3l02d
lis3l02dq
sLen
ad2s
virtadr
xpos
fileoff
ht20
sType
REMAP
rxmode
afar
CONFL
fenc
##6821
inten
exval
##DEAD
##allBack
MODE2
##oku
FTS
lockowner
configParam
OMAP24XX
atim
saveDSP
##Agc
m128i
##Quality
HIDDEN
mast
frameLeft
##971
dlength
vpbl
autogain
RTO
orphans
##8975
uKeyLength
brq
pwrpriv
BUFSZ
bkey
##878
##urprise
##events
Ph
korina
references
Vos
requesttype
dring
noblock
tablet
adt7475
mpcg
PICTURE
goku
LBTF
##dB
##urge
##2425
SRV
MTIME
DLCI
KWQE
aew
##inated
##USER
DVBT
tda8083
apbt
##cr0
removable
rstat
numOf
PC87
LZMA
rfo
portname
prolog
TYPE2
DMA2
gen6
mldl
##mia
chmod
headphone
cfctrl
##BSSList
H1
tfc
cprot
pgbase
COLLECT
##orrectable
sfr
##lanes
settime
0xc8
elantech
mms
gobj
kcopy
##LUS
##perpage
0xa3
sigpending
strr
SLIST
slabp
ntf
##460
w83781d
##IKO
macfb
##46XX
vertical
##2640
SMIC
macint
Service
qdict
##oding
RDR
v110
at25
TAIKO
PERFORM
triplet
STMPE
ndfc
##ZeroFor
OffsetFromZeroFor
M98088
Generic
usbcmd
BBv
FHCI
TILED
sp887x
logicalBlockNum
ES18XX
plx90
3780
Kr
30s
qt2
growth
strmux
tioce
switched
xmlFree
nchan
##PY
##lacement
prz
evc
committing
GSL
##6464
##EDIUM
AGPSTAT
i810fb
SXFR
ulist
##iph
numblocks
be128
##SEX
##endpoint
dtoh32
rft
##20s
CBCR
gold
getxattr
GTT
bsscfg
##vp
##BaseAddress
Connection
hrs
DSA
XI
dark
##join
sfep
##Ratio
gq
qlt
bayer
##anent
##ERATURE
0x8c
FN1
##Fragment
armclk
ERROR1
aib
##tty
PAGESIZE
ospf
FONT
accepted
hdrsize
Magic
colibri
MLM
IP6T
RBIOS8
WLAND
isolated
XRI
##emory
LAPD
REMOVED
WLANDXE
##I2C
MDT
pnx8xxx
ipmb
blkvsc
##73c
DUR
##OTONIC
vfop
CLKPWR
##tracking
LAS
LP55
SCALAR
rcvr
0xd3
2u
BER
ITE
##Float64
pitches
MSECS
wflush
##P2p
cps
##9346
##RateSet
sing
Inf
ALI15
MONOTONIC
FWD
##7520
##Protect
##4709
INSTRUCTION
BDEVNAME
##wwn
rch
REDIS
dma0
ALSA
Si4709
R32
mit
avpkt
QUALITY
Mplus
intel8x0m
VARIABLE
900
cctl
testing
##1001
##TBL
kcopyd
wattr
wcqe
lso
##plt
##TRESET
##GID
xennet
fmixer
evbuf
cclk
ADDR3
SMBus
rects
unl
scode
mlsl
mbxStatus
ECS
t4vf
mpage
NODMA
doublereal
XEL
alloclen
AW
##ono
bavail
procedures
##Enter
xmlNode
dsb
lcid
##PAN
##RG
##aaaa
##jt
RSAR
p80211Header
cfgp2p
PKTS
RAMR
roaming
irias
extLength
pgdp
PRED
##789
HREG
techn
##2160
VR4
DGRAM
VBAT
94
resblks
pciercx
userCount
REVERSE
##IALIZED
psd
##channels
krl
CS6
just
##ERIC
RENAME
ratios
##3e2
status0
validation
mb86a20s
##VED
FLAT
Bt
MCTL
dflags
IWLAGN
detached
##6050
hpcd
##TxPwr
RETR
EBI
WM8766
nBuf
ulen
##IBSS
PNX8XXX
##Panel
DMP
pdacf
##91d
##combine
rmask
yenta
ioports
sunsu
PHB
Ai
##odesc
MVPP2
CIPSO
SCAT
##7220
##atten
EAL
zip
LOCKS
AK4117
S5H14
greater
DIVISOR
##TI
HALTED
Z2
##sistency
##bank
ramdac
storvsc
clockid
RT30
##Ipv6
##spin
bar1
REVID
APPLE
nfree
hwerrs
FRV
##SessionId
lstat
rxtp
##PCAP
CYCLES
DZ
CS7
##allow
db8500
##Double
hDeviceContext
l4kwqe
cdo
FlashReg
dbi
tempbl
pBT
CMDQ
Reason
quote
wwnn
aw2
RamIO
MYN
wbcir
##Pd
CNTL1
##isoc
pcistub
nrec
##777
interrupted
Sound
##ongson
IRQSTAT
PCIA
resets
npregs
Dx
##mul
sym53c
ucr
FMC
optimum
PBF
##firmware
##rem
pab
xref
##ARRAY
third
WATERMARK
nodebug
unsolicited
taint
readisac
hdcs
LDLM
XAE
##x768
pagefault
##bla
physid
pmnc
dab
x6
##shiftby
224
RDP
wkup
efr
##Dist
INUSE
ATIME
secinfo
PEC
PLC
protos
FILTERS
ISOLATE
TOL
pseud
cmdptr
##1208
diagnostic
##Eeprom
##FIFOC
pca955x
##AE
##ULATE
camellia
s5k3e2
s5k3e2fx
0x7000
wm2200
RQT
tds
GTF
qpid
outfile
MSC01
MDP3
pfs
ntp
unpacked
HPT
rfa
PIO4
joystick
5ghz
htod32
Initiator
MTP
0xe6
Resource
stv0288
fts
keycodes
AK4114
67
FPA
ccw1
uncompressed
0x4e
CAY
##ONOSUPPORT
dwData
tgl
txpowertracking
pdo
Allocation
CATEG
wm8960
0xe9
givc
dsap
PAE
##smin
SELinux
##6130
SCHEDULE
CAYMAN
clflush
ABORTING
AVCodecContext
ipipeif
EPROTONOSUPPORT
##ube
buffersize
PC2
autore
100HALF
LogicalDevice
TVP3026
##chars
Zone
fsblock
##MoveMemory
##Uapsd
##1216
TC35
etc
qlogicpti
##5X
rct
privile
rda
##hib
##Role
##CY
##media
##Nan
cbcr
COUNTERS
ipv6h
ks0127
lcp
secctx
fnc
ths
FINIT
vnr
prStaRec
SISR
RBIOS16
mfgpt
RENDER
##321x
reg0x
dfd
##4d
frh
Vpp
SCA3000
0p
EAPOL
##OUI
##607
MessageUnit
k8
registrypriv
ctxnum
recogn
scount
ksig
##Lx
ioda
lic
strobe
tcx
Mapping
Level
pz
NOTIFIER
##OLINK
##ktime
ded
CHIPREG
cea
IMPLE
refine
LSAP
cnodeid
oldsize
INPUTS
WEXT
##830
##1820
multiplex
downc
reqctx
##541
Band
##AGCCore
strrchr
pProfile
ISPCCP2
DAM
BPL
XUART
at73c
0x5b
adm1031
at73c213
linkup
TMIO
pn544
QUIE
MCFQSPI
ip6addr
fsgid
TCAM
sque
LMI
hwstat
mapsize
0x20000000
ELF32
##931
sigh
0x7fc00000
x270
mpc512x
##DDR
omap34xx
crd
pht
usermode
EHOST
s5k5
MV88
CGC
imx31
hfcD
##Cck
regn
ebnum
nonstd
transparent
Phys
sinit
##f5
acard
throughput
recording
sges
vgic
MCFUART
cmdfunc
HSIC
pWb35
Die
acnt
lcnt
LFE
greg
ja
RATR
cpdma
ACT2000
##AVED
FUNTAIL
bq2415x
comps
SCSW
0xa7
##Desire
vldb
##171x
##leasing
cflayer
##ITTEN
sunk
##ato
tlvs
gmux
##AREST
prtad
etext
##VI
PIPELINE
XUARTPS
dma16
##PCR
hwep
##segs
ccd
Frag
##Destroy
Clk
pbox
AGT
PWD
lchip
newline
itir
POWER1
Misc
AR52
##145
##verbose
##IOR
Sg
tavor
osf
##686a
TRUST
APCI3501
sgio
via686a
UNLINK
OLPC
##Isr
cmd640
ptregs
bvm
rbio
xmlStr
dotl
Calc
pDesc
##DID
preserve
ELMER
pMsgBuf
ELMER0
##NB
EFBIG
RAMROD
dirname
##2510
##990
argsize
language
Wake
exit1
graphic
ioatdca
TXCTL
rq2
Reject
L2T
CIU
OST
hardreset
givcrypt
dcer
##Xid
sett
WRONLY
DNORM
rdc321x
ar5523
FIQ
PCTRL
ORD
q31
117
SYSIO
Rfctrl
Top
nbuffers
XPT
##VID
omapdss
##pent
SLT
##1e
SCATTER
FMD
##Sect
loongson
blp
koneplus
maplen
matchoff
seglen
MYNAM
##64781
populated
pTxBufHead
microp
egr
uip
RECOVERED
gdk
0x00100000
ptemp
savagefb
mah
##Resource
arcs
LCNPHY
##932
0x5f
DTS
guint32
CATEGORY
REGD
entit
ride
ISDB
smiapp
namet
MD5STEP
P54U
##util
##856
manu
RefNan
RefNanny
LAW
##emens
DA9055
bytestream2
vtermno
fmax
pmode
SH4
RPT
hflags
##STD
twice
COMPACT
matchlen
sdhost
gctx
dtx
##iteral
smc501
##Expr
stbuf
addip
TEA
clipping
apds990x
twa
##e3
SMMU
bacpy
fmask
see
##fra
CHIPID
cnv
MT9M111
lpbfifo
##34x
##ontext
secp
THRES
armada
SDEBUG
txqueue
rootdir
EFSC
PREPARED
##IMIT
LINKDOWN
BSR
CFB
frD
SGMII
TG3PCI
STRCT
AUDMUX
wCurr
##ON3
retrying
MTIP
mccq
ORPHAN
##OFST
##eroo
PERFC
TCW
PRIu64
iname
bNeedAck
QR
SISUSB
nz
sabi
AQ
##xICR
RT5645
osr
##VBUF
circuit
sunkbd
##IOCF
FN2
htcpld
DESC90
xc2028
cyclades
Direct
mcfg
shmob
assoclen
AC97C
pdsk
topo
NETLBL
##GK
MSM8X
OCC
cs43
OPAL
##2232
vpn
##gc
ATTACHED
GMBUS
npt
xmitframe
##Dac
name2
rtl8821ae
seg1
bctl
were
mocr
l64781
exar
sh7372
STOLEN
AD72
AHCI
ALC56
Q6
0x0006
max17042
##Render
HORZ
bsi
vto
ScatterGather
basename
NdisMoveMemory
OND
##54N1
AVI
Mpi2S
RJ54N1
rgrpd
##omem
larger
EXPIRE
falsealm
LBN
outf
maxpwr
57600
precvpriv
UDA
drep
##btt
##OSC
DOUT
IRQ2
powerBase
hcmd
THROUGH
0x400000
##REFUSED
escb
cpc925
hsp
RFD
abyRSN
cx24113
mmtimer
out4
numchips
ffree
gol
irqhandler
##200000
MINORS
CAMERAACCESS
pagedir
LOOPS
mqd
Delete
spapr
PCCARD
##come
subframe
local64
finup
drxj
stroke
btype
Pulse
portman
pih
##ChannelList
INCREF
BOUNDARY
doit
fnend
IGNPAR
##OULDBLOCK
Prim
CHIPREV
Removing
FFI
Km
vap
writeVal
SNS
floating
##FAT
who
11M
LED0
aewb
KMR
freezer
##AH
llp
##onnection
##caps
DataTransfer
t1timer
ECONNREFUSED
##ZeroMemory
TXN
exit0
RPL
hmidi
stat64
hwarc
howto
##ctets
##lext
0x00000040
siw
nrs
scsilun
DM9000
##inodes
NXRD
CHALLENGE
MAXPATH
mbox64
redo
kiblnd
GYRO
Color
##SPD
##li3
1000X
TAGGED
##EMI
txbb
126
acceler
switches
kevent
vxp
80003
wTxBufSize
rgrp
##itions
SBS
TTP
lgr
##DQ
SIMD
ctest
##ORLD
fpa11
CONFLICT
##mcam
hauppauge
VAL2
##Tm
##update
hw20
acpuclk
ADDR2
unregistered
datbuf
OSAL
Freeing
##Iterator
TEMPERATURE
Unhandled
SSE
rcvintpipe
ppmu
explicit
R6
touchpad
SetCRT2ToLCDA
uNum
sch56
BNO
Registering
S8
bpage
##IVITY
uo
descp
There
gup
ATU
UTMI
##ariable
sohandle
csta
##Store
TUPLE
pipeout
gxio
IBC
icn
RBuffer
yrs
##jmp
##changed
pACInfo
iodev
ibport
SMP2P
LZO
gdrom
vu
##8150
ofuncs
penalty
PHYERR
ATH10K
SSCR0
KEEPALIVE
UPC
lme2510
nsg
EWR
insw
factors
##AuthMode
##ExtSuppRates
addba
F367TER
subc
CLUT
##poison
au1xmmc
##FallBack
DBGOUT
prune
saa7110
cnfg
incompatible
Prob
txstate
MFCINST
workarounds
88200
unloaded
ipgre
wdrtas
nBytes
reqbuf
ibmcam
Me
hkey
EN1
##DEPTH
##SCLK
##arts
byOrg
MPC85
nforce2
##eo
ldg
nexthop
rtb
saa7191
RefIndex
icucr
6000000
nelem
BOT
##6X
tps610
n2rng
WAPI
##ACONF
Cb
rsq
##ynch
Options
##Internal
nodetype
10FULL
##grthm
##OGAIN
##Algrthm
OPP
ipset
ssh
dcerpc
sbdma
MlmeAux
##656
sb1000
gen2
##onext
WHO
Loading
Term
##Dict
hsr
TXDCTL
SAI
kbasep
pParam
ftnlen
mymtd
ramcfg
##rightness
phase1
VADDR
rol
diag204
pxdlock
mex
vstor
piomode
UDCCR
RTE
watcher
Primary
1T
HPR
INEX
sb16
sactive
LINKS
##5400
##Exc
BEFORE
Lun
fpe
gmap
rxbuffer
##ibss
##ENSITY
offp
framing
CPE
##ifonext
rlb
trees
csrLL
COH
globals
TimingUnit
Diag
ether1
0xd9
u2d
##Strength
SWP
specify
819x
##MISC
pchan
NDEBUG
TCH
##acct
fwcfg
GG
##MBPS
baycom
##PreambleType
usbc
NH
reas
ttys
MFR
rxtid
poison
RMON
q6audio
QMOPT
JBUFFER
TSK
ji
##8190
capim
##CounterInfo
##PERR
txfifo
postdiv
##ITTED
TAS
BYT
tocopy
##Xfer
slc
leftover
uncharge
subset
INBOUND
switcheroo
relse
tgfx
svgfile
79
CIP
protonum
TEXTURE
##Self
busiest
activation
MACvRegBits
171
##1610
UP2
restriction
atpx
getscl
##71xx
ES1
HG
hol
##ScanResult
eerb
aha1542
trust
mtable
##IDMA
AKM
BALLOON
0xcb
IOSTART
hidraw
trial
##Multi
clkout
srqn
wlandevice
BNC
##busy
bdma
Product
Bits
PERSISTENT
DACREG
isofs
warnings
a6
uartcfg
PADDR
longest
tmpu
steering
EOL
mock
##8800
cmdnode
AD71
DIVERS
DIVERSITY
##ELE
SCBPTR
writecombine
bitset
hfcsusb
rereg
cr2
currsig
emergency
dseg
##window
NET22
ien
sbic
CLO
interfacePriv
romfs
devflags
minute
pBap
median
mt9d
##Hist
ptask
##829
Overflow
##EMT
##70x
aref
xsave
##7830
recvpriv
DPM
submitting
ats
brdctl
AWB
MODE1
bmv
allocations
PSEUDO
lsi
IMC
PKG
LAPACK
pioc
MOB
atif
macAddr
MTT
isd200
OV5642MIPI
expression
PTA
transports
##DriverState
##Neg
0xfffc
pipein
eacr
actuator
##ptime
clkr
##51132
OV5642MIPIYUV
idct
dt28
tpSir
UNLCK
PLL1
ip6mr
serror
ioread32be
ts78xx
COLS
##3054
tea575x
hat
EFR
REGWRITE
ID0
ptmp
cmdsize
revid
subpage
subject
##THREAD
PyInt
clkin
scsirate
Q40
##mk
##ERTYPE
RANK
SEGS
v16
##har
cdd
mx1
##dra
##1363
COEXIST
DEFL
UAPSD
zroot
##JF
##x3
poff
agpstat
enhanced
zb
pcifront
##nounce
LOGIC
##Configure
mb86
RTI
infop
audpre
wDuration
##DelTimer
HVC
##8G
BUSTYPE
##Raw
##OKED
OMAP4430
##farm
adxl
bptr
abyBSSID
nlm4
FTL
RTAX
##phys
##pmu
##apper
##es2lan
##options
0x00000008
GPCR
BLKIO
w83791d
NVWriteRAMDAC
ped
pRing
ENISR
submodule
sysmmu
ROM16
pot
lengths
RESTR
ifile
Pri
##iform
##ABS
COMPUTE
VCM
gset
initiatorname
Irq
retire
rxlen
npd
attribs
cmsb
##G1
byte1
4b
##e4
TxVga
NoOf
sxfr
speedstep
DPCM
pnt
putfh
SCSISEQ
SOCAM
slide
IDENTIFY
##Bssid
SAVED
LF
MACB
IRR
##asecmp
MIMO2
byBBPreEDIndex
depc
BLOCKSIZE
database
newsp
0x6f
##CTRL1
sharpness
portstatus
eph
unusable
Download
RCT
pnpbios
ramdump
CREATED
uresp
ENI
ACCTL
CS0
des3
pktcnt
bandtype
p54u
##BP
##ora
pwrgroup
scoop
DMEMIT
FULLDPLX
73
getstate
Extended
PSSR
TSTATE
p6
##reed
##f4
IOCMD
InterruptParameters
##1701
TCPOLEN
##Owner
pTDInfo
390
trunk
CR3
occup
pdadc
##rch
i2c1
CS1
vt8231
##MIIREG
S3C2440
tplci
rpcrouter
PSCR
RNC
mrs
lcla
memc
nv17
sdcc
lkid
pdvobj
0xffffff00
DELBA
freem
HPDx
extractFloatx80
marvell
bev
entrylo
Field
cs5530
pdiv
GRAN
TSL
GBPS
TIOCSER
TMSLOW
SKY2
lha
SIMODE
HSO
##MIXER
bench
temp0
IOCPF
ELSA
integr
DITHER
fstat
pNode
IOEND
ciphers
OFDMTAB
##Doc
exar7
3393
VosStatus
mse
##itize
EWOULDBLOCK
dcode
dps
postfix
pchg
VIN
NICAM
pushstring
ADC1
1080p
fsname
pnpacpi
IEs
bitrev
##2482
backside
TEMT
##SuppRate
them
ADF
AscWrite
AWAIT
R14
##6242
##andidate
SPIO
rcvctrl
0x502
tti
ucg
gsr
WaitFor
##pbl
##Acc
##Mesh
DB9
knode
MAXQUOT
##20t
dph
bbar
MAXQUOTAS
##pel
s3cmci
scrollback
##3155
##ORRUPTED
msh
GROW
Ip
mtpav
2000000
##agick
shiftCount
ORC
VC1
##706
macvt
MC13XXX
macvtap
IDENTIFIER
##MA2R
srcptr
BPCTL
ghsuart
##prm
redis
SURV
##435
req32
ptcb
CPHA
LGS
##Sz
readlen
byCSS
##SKB
fadump
TALLOC
##Offload
hgp
fileio
pinconf
bank1
0xc6
HSM
##n2
##phs
starts
MGM
PMR
iopgd
DEVCONF
watches
PERFMON
AK4113
copyout
BUILT
VECTORS
mmcfg
crsmin
EXISTS
OSTREAM
freep
Win
##DSD
0x6e
ves1820
ACTL
NN
tW
derot
windfarm
countdown
sym2
BMP
KICK
PWRDM
CAMIF
##Found
cpu2
##1617
tracks
dotdot
##DNS
##ypass
##iple
giu
##btbl
sph
outq
denormal
0xd4
designated
reliable
hdrv
word16
mbo
rfpwr
##ECTL
0xf800
PageLocked
##RFReg
##GenericError
xxx
configuring
pollfd
CS42L73
##OPE
0xaf
LOCKING
framed
lq035q1
##SSERT
uctl
rslt
rsbtbl
kmrn
TSIF
grpci
prp
rxhdr
dqh
GINTSTS
hdm
##Character
##ahead
or51132
eir
##oq
temp64
uiOffset
##FrameSize
##Allow
TCPOPT
inumber
lo2
TEGRA30
squee
Bcm
qep
mem2hex
qspi
COLUMN
CORE2
WPAL
##THON
##RW
BUFLEN
##Comm
squeeze
sfe
##rete
memdup
lo1
##cmds
annotation
##AGCCore1
m0
c2wr
NEGATIVE
0x0000ff00
RLC
ypos
##OUGH
##a2ant
lam
##Surface
tcrypt
##b2ant
byFB
0xFF000000
CLKSEL
CX25
byFBOption
CICR
##6a
##109
mtdcri
FRONTEND
##Empty
rtcp
busfreq
RPN
OUTBOUND
##2bh
jh2bh
regvalue
##b4
##ety
usbhsf
miim
p16v
f01
rtattr
cfgte
PMB
ipwireless
bflags
##32AT
STFAX
MAX8998
DMM32AT
applid
pCur
rqe
overwrite
0xd1
CCP2
Rela
ISPH
SNR
##C0800
BDR
REBOOT
RDMAP
lx6464
##666
lx6464es
lp5521
bootx
##8830
##IOUS
DVO
Diva
sdn
SHUT
EXITING
PARANOID
##bird
OVERLAP
listeners
##ModuleInfo
Print
##llX
ebc
##USPEND
pbyTx
wakelock
##144
HCFG
PGDIR
TempVal
umad
EUR
##bWriteEmbeded
cik
smaller
audplay
RTV
SDS
rcvhdrq
ndir
statp
hev
ERRNO
saving
PASSTHROUGH
LEVELS
CAMDMA
##UDIOCF
##everse
PDAUDIOCF
##KON
IDMAC
adtfn
stat1
0xda
usbfs
##Remaining
txpowertrackingindex
sbid
viid
strcop
##Override
vpss
TSTR
TQ
btuart
aclc
CAPABILITIES
DOVE
phi
pcdac
Prev
strlist
INPROG
GEN2
estimator
OD
##Ofdm
smsd
##HighMem
sized
SFF
AEU
NXRD32
csums
RADIOTAP
PageHighMem
Registers
IPAERR
recsrc
##819x
tHalHandle
Front
Ts
dataval
TIMER2
src0
grph
bValid
NXT
SIRF
loglevel
libconf
##ironment
nbu
vres
##NCTRL
UNCOR
##sibdev
We
HWMOD
bodyptr
Asic
##56k
xenfb
##TSC47
smsdvb
AID
CSCR
displays
FCC
u4b
PFLAG
##L0
physmap
celleb
stbl
tl1
After
DK
UDBG
fic
##Tick
txrc
subscription
f32
LP87
horz
nk
##2id
numbytes
byBBPreEDRSSI
pand
inactivity
rFm
se200
i2e
se200pci
handoff
IOSTAT
cram
##OMPRESS
bval
f8
##XG
wrid
RELATIVE
D3hot
##diag
notifiers
detailed
PhyBlock
VLINE
AGGREG
iue
elm
ROWS
##Drop
Channels
0xbc
mres
##OMPLETE
##Insert
DELALLOC
LogicalDriveNumber
##ANDING
BCM43
psinfo
rehash
CONSUM
##leton
TCPF
GCC
##PCON
##toh
MINUS
##VLAN
DELEG
pmcs
xpram
##WIFI
lnb
VPFE
viopath
SEEPROM
pfree
LEGS
ntx
0xd7
SAMP
AC0
COALESCE
##adb
writed
callsign
networks
##ATER
rhport
mop500
mm6
##states
lladdr
ret1
tdp
NXWR32
##mn
vrc
##A8
##uling
byPreambleType
##9460
vlv
NEIGHB
byT
##fnum
qualifier
##514x
tvp514x
##x8
ANNOUNCE
ozhcd
LIC
zmii
automatic
chipshift
pkcs
ANALOGUE
ip22zilog
##irtual
##emode
0xc9
##REPL
drives
CPDMA
0xb6
scbram
ABSENT
gmch
Usage
BFL
WRITEABLE
CLKS
every
PSPOLL
usecnt
##AUDIO
cardnr
##Cntl
##POWER
IOPORT
##Standard
longer
phyinfo
##AMI
RC5
OCTET
##CopyMemory
PILOT
muted
passwd
##imr
forcing
mlib
CSR14
MaxSector
##APHORE
RxPath
mqpcb
Calling
0x500
RWD
nre
rtab
0xc0000000
drr
pm3fb
EOM
OSP
SBUS
##TxOk
##Compare
multib
Gate
##Phase
frmsize
##Sq
##df
cardbus
rolloff
YUKON
fscki
##contr
linebuf
curseg
byKey
Decode
Struct
fnstart
resuming
tts
i7300
##psk
AGAIN
pager
pTemp
sirf
allocs
CH70
tps6105x
LowTimerValue
HighTimerValue
pwrctrlpriv
pglen
serverworks
ceil
tdc
signaled
##probe
putname
##351
##Allocate
dbusy
dart
fastpath
##speci
ctl2
hph
PRESCALE
##MOUT
##akey
usDsp
as37
S5PV
##3400
stmp3xxx
lge
##rose
##IVA
hubs
PCNET32
EFSCORRUPTED
viacam
TRIO
Siemens
##TSC15
tDot11f
sddr09
sfq
gmbus
##Direction
fecp
absent
##NETA
sops
##8080
msgtype
monitors
##BBVGA
SERVO
memoryMap
synusb
IOLOCK
fragm
lcdfb
bcm5
##skip
nesting
##Privacy
ENTRANT
HIC
##console
80003es2lan
mipid
LIBDFC
5V
Duplex
pWDA
NPIV
adxl34x
eba
easy
iptr
CTL3
EMMA2R
##MacAddress
EMMA2RH
##ORCE
byBBType
msm8930
VIP
BUFFS
0xCC
jwrite32
elts
sil164
blc
DESTINATION
arith
Mbps
0xce
##ELY
##msn
rtl92de
tnpc
ESTAT
FUA
##OMMAND
cnr
blkaddr
##701
CS43
SCALING
regarray
nesibdev
swd
L2X0
pTL
rcp
softlimit
UDA13
OUB
WALK
in32
iovlen
i8k
rockchip
##Disconnect
sbuff
cpcm
shdev
tolower
CEX
##Chn
##mcard
wakeups
QMI
fem
chmap
keyid
xcRB
##dk
cbus
SVGA3d
mt9v011
##VG
0x018
sbits
SBA
ATIM
txok
rtl92cu
VSI
##ICH
ATTENTION
kekl
INTEGRATED
ehv
PDN
##bcam
kreg32
LOGOUT
##common
pbyTxBufferAddr
subaddr
DLG
xmitpriv
##asr
xmlGenericError
##e2
SUN3
nct6775
cmd1
shpc
RBTX4
hdlcdrv
##BaseAddr
##ificate
stringify
REALVIEW
FORE200E
s5h1432
dinit
usg
pvos
TZ
UDCCS
ADM1026
##NIE
zr36050
memdev
RTSI
interfaceTag
operator
INTERF
SetRegOR
m88rs
bon
##V4
gimp
hpos
movel
tval
smb13
precvframe
UNSIGNED
din
wqh
##ternate
Zd
diver
bdstatus
xtlck
gaddr
tbh
FIBER
NAMED
grayscale
PERFORMANCE
##Meter
SCCB
dti
##ALIGNED
rhead
cutoff
##3944
ctxs
PROV
COHER
RZ
regptr
##One
gfargrp
##disable
IOERR
dinitprintk
objfile
IOASC
DCRN
##udp
ADRENO
avmcard
vc1
hdlr
##okbd
locomokbd
lrb
RSZ
LGDT3305
##ottom
sigs
ibmvscsi
MVNETA
SINGLESTEP
UST
##f7
pCmd
hsf
TPA
ICV
vco1
tor
##aca
param2
temporary
##Credits
##umed
SEMAPHORE
mtts
calgary
AMI
pipeendpoint
lpj
ksb
e3
machinfo
palCopyMemory
writepages
UTF
opnd2p1
cardname
TV1
##ndup
##TLV
OTGSC
REALTEK
ad198x
QUANT
LinkDetect
LinkDetectInfo
filesz
Running
##Ticks
##antom
rxnfc
LDO1
##pag
skey
32k
PSD
clps7
dynid
##3232
0x008
FDCS
VHOST
##ADJ
vgacon
consumers
##715
WUFC
writeo
rdt
soundbus
actcapi
MODULATION
limSend
GxICR
inform
btp
##protect
##DCARD
##24G
hrz
Que
UHCI
AARCH
JA
UDR
rv515
tps80031
deselect
strncasecmp
pDot11d
pDot11dInfo
DTYPE
dnld
reduced
authorizer
ccbq
timer0
ssm2
ssw
DIDD
DEFERRED
scid
GtkTree
kstatfs
cct
caldac
0xdc
wapi
leptr
TXx9
IOCStatus
meram
plugged
ppll
PS2PP
nav
xusb
ana
##Registers
hwprot
TOR
##LST
clhash
HOSTCC
recovered
dss1
##82563
##3k
regdump
M41T80
b11
DRIV
EP0OUT
UNCACHED
strp
K3
##rogram
fbno
OV5642YUV
EWRK3
zbp
##IDIA
GCTL
bDevice
intent
XIRC
unacked
SURVEY
utils
R0900
iaddr
vrs
##ERATE
querycap
##DevInfo
enr
##YPTO
bridges
hotcpu
TSL25
##Zone
btampContext
CMODE
bkt
recheck
pci9118
referral
nuke
##encrypted
ads7846
2e
IDS
02i
ppc64
buffer1
lacpdu
##ifo
wants
##Dig
oflag
##scb
channelEntry
##short
Imp
cleancache
ihex
pjsip
##vn
writecmd
##cbcr
ENOMEDIUM
SiemensCounterInfo
ov2640
ACRYPTO
Quad
##bond
SHF
scans
##smr
CommandList
##98090
Destroy
converter
##logr
rate2
fwname
vmlogr
##Append
vmlogrdr
v32
ad2s1210
##force
NOARP
CSR3
Headphone
wis
startstop
gos
##JSAMPLE
clif
eapol
##874
0x6000
unpause
REFCOUNT
mma
initialise
mxm
##semble
pCoexDm
ROCKET
fdev
0xb9
DESCS
uengine
sni
ldst
QEMU
LINT
bedai
dr7
230
tindex
SECR
S3C24XX
syntax
setcore
pageio
dmux
W83627E
serpent
ALICE
machtype
LINKINIT
delta2ns
AIRO
ebitmap
Incorrect
AMPCAP
pBSSNode
0x0014
i387
pphy
##rocessor
##35390a
##WIRE
mbp
##crx
xname
irqno
ATTRIBUTES
CAUSEF
cx23888
SLP
BaseAddr
f75375
##Button
sb8
workbuff
intelmad
ds1302
thinkpad
proj
tpgt
PIPES
CRC16
wil6210
thisEUN
MOTION
plh
rsl
onkey
##9013
Parameters
DTD
##uppRates
##Pw
0280
siso
##alist
TRAIL
pdp
devaddr
IOREMAP
Bool
iS
slash
queuecommand
BAR1
fadt
iodesc
foreign
0x00ff0000
CGA
sgtl
ADC0
##Devices
gum
phantom
creat
pfns
##attery
##IZATION
##ReorderEntry
EModeIDTable
chno
##l66
rfile
vsyscall
FrameSize
t7l66
t7l66xb
##SQL
sgtl5000
SUMM
ECB
##CAB
w83l
EALREADY
kmmio
BIT1
pfit
uninstall
PUTPAGE
WM9090
smb137
zl100
dividend
##0010
##DataHead
pTLCb
tbi
##010
ieee802
smc91x
HSU
TDA10046
rle
tvout
##ICKEN
recommended
rmu
##etlink
enquiry
rswitch
##wrk
0x2C
pCapELE
adp8870
MODULES
abyCurrBSSID
ECM
fct
pChip
rix
##bpp
0x0015
##ax0
corruption
2nd
##NOW
Rebuild
wrt
readphy
hrtc
temps
##Station
WAR
##504
##UBUS
##ntfb
lad
ourport
itd1000
NUBUS
ErrorCode
cputype
i8254
eCurrState
air
qinf
devlink
dog
failover
RS600
vruntime
ar6
0x20000
libcfs
frB
##mooth
##208
br2684
Main
RXERR
UDCCSR
##364
ov9640
sanitize
s35390a
psrc
##streams
LICENSE
##EMEM
lineari
AscGet
0xc5
RFOVER
DPS
let
mvme
xyz
NvSub
regdom
s6e8ax0
mscan
mappi
builder
##ShortGI
##Cpt
unuse
apci
MSTR
bootverbose
setbits32
bel
tdes
##tentry
lp3972
##achi
hdlcdev
BFS
prober
##TimeOut
##decl
pbyIV
ad5
INL
##8817
combo
DSP1
PageLength
leading
hps
sha512
skin
##Ani
Initialization
INGRESS
NOCACHE
typedef
sys32
FSID
utmi
##CmdInfo
ADDR0
Unlock
ADVTXD
##PESession
ISBLK
##2443
SELECTION
MRST
##blob
unalloc
##OSEL
##152
VMK
SIGMASK
ATTEM
M0
TRAINING
SANE
iexec
##lar
wheel
RXP
CTL0
CFL
##ASSIGN
##ensa
MBA
APERTURE
FSG
##pkts
dispatcher
##PECTED
ip6addrlbl
PCT
vws
fmi
##0100
asserted
INDIO
DCI
tdo
mmcr
cprm
##DEXCEPTION
stac9460
follows
AR7
##PortFeature
##DEMOD
getintprop
SFIELD
tda10071
GPRS
SCE
##RUN
philips
timer2
tvnorms
pAS
0xbd
HvLpEvent
360
AIO
i82
iaoq
HOSTAPD
##Wireless
scntl
0xb3
Camera
filler
REPLAY
Country
kdata
Restart
##IMAGE
symbolic
fpt
##Margin
enckey
Cntl
SJ
##express
rackmeter
vnc
evnt
QSE
setconfig
agblock
##Invalid
dot11Mesh
##pixels
##ENTS
winsize
door
INT2
BFAD
ROTATE
AARCH64
MBCS
shmid
iSCSI
##WRAP
SSH
OVF
dfprintk
ds2781
ZAP
slider
SCP
mlmeext
tiocmset
APLL
wlist
crtc2
CSR2
Amd
##Vision
GP1
pollfunc
little
##UTY
pcache
fptr
BIGMAC
agc2
mlist
mroute
hops
intvar
0xffffffffUL
ADISC
##tide
##ssh
4000000
nal
##4K
m88rs2000
RT5640
Attempting
##9A
NVIDIA
##78xx0
deque
page2
cflags
PEAK
TIC
##RateLen
hw20k2
devad
precise
##BLT
fddiMAC
RRR
##CRATE
TBTT
##BUFSIZE
await
coords
channum
tpPESession
Dst
YCB
##okup
VALIDATE
pcsx
Unrecognized
##83a
dprintkdbg
imx27
GNT
##dram
WMT
##ething
PRTMP
ypanstep
MCASP
index2
ifibss
RX2
SRS
wd7000
Alarm
93c
hctx
tres
FSFREQ
gaint
gunlock
nvecs
indata
why
repair
VIAW
giw
Wh
qat
##IMENSION
nfmsg
versatile
cmu
PROMISCUOUS
normalized
270
##chanis
Reply
PHY1
UNSTUFF
##cessive
##bufsize
tda9887
##hook
implementation
EHOSTUNREACH
##orld
CCID
hwdesc
##PCORE
streamparm
negate
CPMU
PEM
##IONS
Inode
shr
bgp
##055
ksocknal
intelext
val3
acred
##urf
PM8921
ttpci
ebh
wm8995
##ELINE
pRoam
cz
tempe
##query
ealg
spo
MAX170
inobt
LCDV
suitable
msginfo
##ecmd
IOAPIC
advan
PPB
##Align
IFLNK
ctnl
attr3
RXE
0x00001000
flows
COPPER
gest
PTQ
##ParamSet
##Program
dxx
linger
gether
SERIAL1
GRABBER
OPF
wrapped
INEXACT
VIAWGET
fflags
IPP
bdeSize
PKCS7
CORESEL
98
pFile
P2M
wled
deviceInfo
PPL
sei
rx2
FINE
TDA18271
##akbd
txdone
SDATA
S5PV210
hadc
mv78xx0
WriteHSCX
reass
h225
##ycc
OUTPUTS
wm9713
sfc
bbio
THROTTLE
succ
5709
tgoal
0x7b
eccsize
EZUSB
NWAY
eur
nvclk
etop
IWE
RMII
##PTX
DEBUGF
##ParameterCount
nig
I830
lmt
sft
##SEnable
frameUsed
musycc
nud
##83XX
DEFINE3
0x9e
##egacy
LM85
130
##ABIT
dsp56k
divisors
separator
##Calc
firstep
##2266
ni65
##1160
retrieval
tmax
deleting
cdr
##OA
s6000
##llc
zSig1
##RadioOff
div4
AR9300
VMK80
kf
pci9111
S5P64
lj
ADDRS
enumerate
Ident
##ctet
atdma
minus
devicename
##MULT
##icon
TYPE1
dm64
##756
cdt
SAY
CORRUPT
freezable
ability
ASCII
##ERRORS
##Att
PERROR
MPG
PIXFMT
S2DEMOD
PLength
hexdump
##pair
##2t
TXEN
Ins
0x80000
GLF
mcl
SBG
##7002
SPKR
BIGN
tah
RESTRICT
A3D
Div
##ialize
fibctx
bgpio
UIC
PRTC
prtx
SNOOP
pinctl
emphasis
##hhx
ifdown
datatype
IFINDEX
##819X
ifregs
##olution
##Into
WILDCARD
interm
ctl1
##13A
Corrupt
ABRT
TIP
IOB
fragtree
zbpg
nrt
utd
##entries
worst
rdb
HES
bTx
patt
ds1305
semi
PIPEB
BA1
XCT
##Qu
##joy
##ECTRL
xencomm
loginuid
##Decode
LLI
METER
getf
mcmember
nful
brelse4
##Pkts
FAS216
PyExc
fuzz
VCLKIndex
clps711x
RIVA
ys
##FCS
cs4270
Initialized
##2rh
advansys
##248
cyy
rounded
asleep
RxM
##RAT
SPEED100
OVERHEAD
BH1770
JIFFIES
txsize
dpa
DM365
MPOL
JDIMENSION
##bucket
INTERCEPT
bwmode
LowTiming
HighTiming
86
##agged
BCON
atbm
subt
ssleep
##bir
pfalc
W83627EHF
0x0030
bpctl
tagb
intparm
w3
rpmsg
s5k83a
ssm2602
##ETA
junk
cacheline
gtp
colon
hgpk
SITE
hnp
nvd0
glo
breakinfo
SNB
Indirect
DPCD
##ServiceFlow
##SpectCh
ISTAT
ROC
##390
secdata
MPL
##imc
TOHW
##TxDesc
DY
vac
mplane
Content
##agma
s6e
8d
##x86
DBG2
64000
singlestep
ifi
QPC
rtlusb
LSO
BIGNUM
iram
##GRPH
kfd
word3
##ELLIA
BMASKDWORD
##usbir
psq
ttusbir
EMC
ceq
p8
##cad
CAMELLIA
atimer
clist
##sil
##SCAL
UNEX
OUT1
emma2rh
ad7879
Async
aure
##ANC
ADFS
pp0
##abort
##NPHY
RMPP
pdisc
fina
MTHD
CVB
##ATIONS
SBGGR
ps2port
ctmp
VIDEOSIZE
HIZ
Pending
##IDEXCEPTION
ccio
invalidflag
invalidtrap
INVALIDEXCEPTION
RVDC32
footer
##ressive
DMODE
##9615
wavnc
##med
unip
substring
rbr
HM
##pda
EXPANDER
CONTAINER
Cfg9346
##ursor
FDDI
empress
meminit
suppress
hwspin
blockSize
Insn
##TYP
xritag
bzero
alist
##linear
realtek
domhsh
UNINITIALIZED
##6027
IT8152
eah
##v8
ISDBT
CEN
##TED
socrates
discarded
disksize
CARDb
utf16
padsize
dtb
TAGS
egpio
##erev
##cr1
##acters
iga2
rmsg
KEYP
synthe
vunmap
sendq
kona
##UnitSerialNumber
PhysicalDevice
YY
DATA2
192000
##coh
RB3D
LM90
size2
##3dh
##lector
SUCCE
h3
tqueue
COMPR
02hhx
RADIX
wit
##Rm
reth
adcs
acqe
GLUE
##inished
getsda
rewrite
FWS
IPv6
91
##833
LINEOUT
con2fb
##CHK
CFGP2P
Uni
esb
ave
rateIndex
epfile
lpp
##1217
GV
stptr
iprop
driverfs
RX8025
ecd
Diff
SPEAR1340
CDSN
tll
EMBED
fnum
##break
scsiop
imx6
XFRMA
##Ht40
aureon
conp
nosave
PL330
##Stopped
sdbg
ASoC
mpeg4
lp55xx
ill
skl
GPMI
des01
constants
lp5523
NEXUS
killed
Transport
WILD
entry1
pports
vex
vce
memsw
ABTS
CURL
SOFTIRQ
HKEY
xtensa
##Cplt
ibat
GP0
NTSTATUS
100000000
agl
tseq
##Am
LSTATUS
zilog
dmarx
mpz
setclient
MCFS
nesnic
Opcode
##oly
##owerState
CS55
hres
##843
az6027
ims
pcictrl
diversity
71
##freeze
kz
sbio
fcu
##H1
s3c2443
##Machine
decay
DEFINE2
xseq
fraglen
gpm
GPHY
kgdbts
Touch
writeval
##Unicast
F5
driverdata
iboe
ccn
MCSPI
H5T
AdapterCtlBlk
gtod
max732x
##X3
##ctrl1
XIRCREG
dic
dmode
WIN32
ByteCount
##rees
really
kbps
Faulty
setclientid
TDR
h323
CKSEG
abyAddr2
Speaker
max8660
slv
abt
paste
##lin
CH2
INCLUDE
##Direct
0x00b
##mplex
##ps2
0xe2
atmdev
CustomStat
ullRsr
AOP
rocker
rchip
STUB
##OVAL
RDM
Build
##MAS
URL
byCipher
sbox
B2063
rxerr
##tim
TXS
ahreq
veio
NET2280
nStatus
##height
MAX3107
AEID
audpreproc
##0132
HAT0
z0
errorCode
EFER
0x00800000
##mgt
##Adj
cookies
NewState
140
SIP
WM8753
FEM
poi
fbdef
iocbs
##Convert
fbdefio
##CG
adav
maciisi
##Ccx
dsos
TEN
as5011
xmlText
mpx
##RANGE
spot
sprg
pBssDesc
rinsn
##HashTable
##cpi
shortcut
UBR
LTVP
##E2
##pointer
unsync
taps
##ELEM
devh
KEYSIZE
##Deauth
Dir
0600
wstat
queuelist
FILTERING
qlock
##OSS
SWING
nano
##cos
scratchpad
ycbcr
##aic
halbtc8821
##Imm
Cnt
fsopt
R15
##Media
PCU
CUB
CL73
would
schema
KHZ
RECT
trp
dst0
qtrx
sp8870
lrw
hdrq
txdp
finder
epb
ecache
FWI2
##esses
fs16
##dlc
STbp
IBS
Idx
fmp
alignof
SUBMIT
69
GORD
fanout
##AROUND
s3c2410fb
lvbptr
pagecache
GORDON
MEGA
huart
SYNCRATE
disassociate
200000
oxid
TIMESTAMPING
booke
##nodes
readbytes
slid
INTB
##lyphs
mr1
82580
totalsize
##anic
subnet
0xFD
bT
ferr
connecting
corerev
synchronous
##9040
pblk
lproc
MODESET
GPG
sleepFlag
BDC
interle
##88f
UDPL
l2nb
##FLO
##GPU
bt878
mntf
cbits
poweron
##836
3945
chiprev
lcm
WM8580
##Bri
reg4
initval
##DCOD
ORION
glVertex
settable
10HALF
binfmt
ERX
usnic
##Coff
##BitMap
##EDR
newt
Allocate
nfnetlink
##5066
vtg
BANDS
RLIMIT
qtype
pragma
LOWLEVEL
eromptr
recd
S5K4
Dropping
rdr
shrd
IST
con3270
opnd1p1
fwlog
isp24
TxRate
QLA83XX
gmc
images
FLEXCAN
adav80x
newfrag
RTW
pCblk
RMAC
xer
##Norm
forbidden
regsize
lm8323
Limit
##rpb
OFLD
##sient
seqcount
hashfn
nP
hwrpb
gpreg
##GEFW
MXGEFW
dstp
MSN
uccs
SOLICITED
##ROW
sccp
CHICKEN
GPN
dlist
##358
rev5
kernfs
##Kernel
cr1
720P
subdirs
rnp
qpsk
wqueue
micb
rshift
hwerr
0x2F
ov6650
atyfb
platinum
##7090
videomemory
DATAIN
sr030
PIM
LCCR0
eAuthen
##Crc
0xad
##aspect
mpf
##share
eAuthenMode
pushinteger
AdvWriteWordLram
##B2
PTCR
##T4
##Red
rsxx
THUMB
##IZZ
PERIODS
VNODE
Fast
bRC
vp702x
TDM
##wifi
SOFTMAC
rCCK
pwrlevel
xlator
ldi
unchar
PPPOX
pout
logio
##SUP
##jit
pscmd
##LramByte
unconf
cplen
##erver
curSetting
##2040
chipcregs
expkey
##olved
genwqe
CX24116
cud
pOld
##CommonInfo
transcoder
6s
iNodeIndex
##Cls
##stall
BP10
##gl5
lgs8gl5
PIDTYPE
Single
##217
RXINT
tgts
##chedContext
aal5
cx22702
##Socket
##Reader
stateowner
pops
##OLLO
##memb
rlimit
##nil
HCLK
a5
pca953x
Range
toset
DVFS
OPL4
tmp10
MINUTES
AUTOFS
s3c2440
isset
badblocks
##bra
##IELength
##ements
PFIT
mcore
win32
m2mtest
QA
oud
unbound
FCXP
wb35
##965x
CurrLedState
GRX
0xFFFFF
BRDTYPE
Work
##cached
##3210
TEMPOR
0x0000000f
Perform
Uint32
0x2D
BCL
inplace
rc2
roff
comput
CFG3
hardwall
am35
tstat
x32
##urvey
sdo
##Bcn
pshm
##expos
1000t
stacksave
stackrestore
##exposure
##lined
##Failed
##lly
isolation
ffbit
##pc30
controllen
##ktop
mmcr1
MIGRATE
webcam
hdac
##signal
rthdr
fie
fcm
TSN
adat
namep
##ibility
announce
raid5
##Checked
##fold
IoBuffer
NODATA
fer
read1
##oftl
##InPeriod
##9480
ndigis
STBC
ppage
mvmvif
gck
0xae
papd
gInstance
apdev
WCAP
STB6100
hwdescr
writebits
##9002
GetIndex
##2GHz
mb862xx
sMgmt
##Removed
tSirMac
sMgmtObj
##owl
buss
prison
##9a
bor
TXCHAN
max77686
lambda
##Fill
pHead
horizontal
##dig
EOT
hreq
##k1
rxmac
shub
CommandOpcode
##0342
bipolar
##388
L5
##callb
Successful
WLED
bic
mb0
mdsmap
GIT
statcallb
Match
qfe
getn
killable
rewind
igmp6
dcookie
qBri
suid
cmdlen
mpipe
##BK
##inv
##airwise
rnode
##TCB
asize
dmd
##Lnk
tlv320aic
rCCK0
BUFSIZ
CBUS
fread
newcon
alaw
wrs
srpc
ov965x
rtsc
##Frequency
##Atom
ABI
stu300
DT2821
req1
ema
proceed
au1200
usbctlx
fci
##Printf
accounting
pUser
uss720
##ssvc
HCS
reenable
##3220
opj
control1
DVBS2
W83793
LGS8G
ADE
WRITES
PLA
BaseAddress
userPtr
SEGV
gazel
M4
wadd
PRP
##nas
##datalength
BMI160
VSB
Maximum
AZF
IXOFF
ppe
iwarp
virtnet
##hdraw
pSc
DLOG
vwsnd
prframe
prologue
##ury
mbcs
za
##eeper
chunkhdr
##3630
wkssvc
PCI9118
QCFLAG
TCON
bitflip
RCSR
ISP1362
uec
0x180
KEYBOARD
HSMMC
CUBIC
##PXD
##nid
uart16550
RGBA
Keyb
nkeys
GDK
136
AVERMEDIA
Complete
si21
RETRANS
instanceData
RFPinsOutput
cset
nthreads
drxd
promi
lprocfs
sr030pc30
ACCT
DRVNAME
NESTED
pm3386
##ICMD
tdb
##VSC
write1
8254
resolved
cmdid
prf
rpsc
SLB
CTAG
ccwlock
BQ2415
Rtl
IP2
##833x
DSPFW
nchunks
Pci
TXFORMAT
nodata
12000000
R10
TXT
##345678
base1
0xffe
binprm
mcs7830
##DUMP
ad53
mscp
##spmu
predi
leftshiftby
l2m
mon1
mipspmu
##INSTR
IPH
##PhyMode
iodone
iga1
0x00000010
TRIDENT
autosync
UDPLITE
##orized
15s
##rum
sccbMgr
sccbMgrTbl
uuids
Recv
ssId
IXDP
plx9080
Fab
mak
NVR
T6
##ARITY
0x40000
##C4
newnode
rsci
Sleep
gpd
tmp4
MX35
##OO
COARSE
##44xx
pc300ch
MDR
Make
rfi
##oops
##2e
at91sam92
TVSetPAL
uurb
##amma
hfi1
720p
680
##idump
24000000
0x9d
tseg
##210X
rz
##yc
VLD
pCurrBSS
xport
isbad
##csum
uoss
pstart
hsreq
##d0000
CIG
vls
##Force
##AUX
sh64
WORKAROUND
strtoull
rnet
##43X
##Encode
XAUI
Bridge
dbe
rev6
LBA48
bufaddr
REQUEUE
HCINT
##xy
mt63
##dirq
sec4
rtl8723ae
bStop
##Tspec
##5351
0x00c
SNI
Endpoint
##PENDING
##osec
detector
hcint
016llX
MODCOD
jrp
##7t
RS232
SUN4C
5M
TRX
ivar
0xC9
visited
315H
IAR
kad
msa
rxo
0x0FFF
msg2
sun4d
PMF
gra
I2H
wwid
##SIO
semid
IobaseAm
IobaseAmcc
STABLE
BASE2
BDI
treg
6000
esecs
##AUSE
##NaN
mdi
fanotify
pfirmware
lockstruct
##C1600
##780
tmg
0x700
##rows
A4
##Matrix
CS46XX
ENETDOWN
SPECTR
Orig
uif
##96x
backpage
pardevice
tmCom
HVSI
tmComRes
8f
##RELE
currc
##ainer
pnx833x
NSP
fdisc
vactive
delsys
bsw
##ONTEXT
engctx
SVAL
UDELAY
oos
simp
YUV420
##1586
architecture
##HASH
##IRT
##Elements
##AndPack
riptide
MDIC
TRANSACTION2
##wk
entry2
##GEST
recvbuf
pExtSpectCh
sring
MWDMA2
noncached
paprd
Pixel
##Erase
pfk
reqsk
Allocating
flav
INT0
RAW3215
mqueue
##crc
QoS
va1j5jf8007s
MINIX
csrIs
##tch
unex
ROI
##This
kctls
##ka
##oriz
IWCH
##ymbol
SUMMARY
##once
serviced
PCI17
##IRD
wm8978
UNEXPECTED
##ectrl
splash
##ResetValue
MT9P0
##BeaconInterval
decimation
mxl5007t
Width
CHTV
hprocessor
playing
RESULTS
4800
qdr
in4
##INAL
busn
ld9040
srose
logfile
very
guess
depca
ioarea
ccu
CNVT
##Page1
Final
VK
bwg
RRSR
trailing
##spc
ASN
FUNC1
dmt
gcd
##LimMlm
QSPI
r15
SBC
PALM
filemark
EVNT
##SelTable
FileName
##dentials
RxPathSelTable
ERRATA
DAS16
Force
##BaseIO
##bssid
##ICV
##89b
nblock
##plit
##gnumber
mpfr
Tempax
giving
intv
bitcnt
piomb
##Pll
##krea
##sgi
##416
asle
##ronome
eukrea
qscale
irqnr
ppm
mydev
multiq
##vas
park
verification
Region
jint
##Writer
NVol
pBD
negotiation
BCS
ulpCommand
slew
##1415
Disas
##Skip
##atomic
##ricoh
##elog
sdricoh
supers
24M
characters
ISOFS
RV770
crc8
##712
newtp
##EMY
demo
SHR
definition
0x9b
##ounter
11025
MASK1
tempsense
pscdata
inconsistent
metag
passthrough
##LEV
0xDF
Gener
##dy
vcur
facet
keyctl
VNSvOutPortB
##OOM
lte
##ipes
asv
USERPTR
##icator
11Header
OCMEM
Segment
##ntype
##32k
##han
dtlk
##U1
netw
0xd2
##KHz
PPPIOC
##etric
symb
Shift
flr
##ntframe
misaligned
v7
rearm
##umn
##gines
toread
##Build
INDEXED
oap
##sume
ANTS
XIIC
jhash
FRQ
##struction
0xF000
s6e63
##EMASK
SYSEX
##Entity
lcdcon
TFD
##lend
##405
##DENT
DEEP
PRIME
MASK0
iovb
SKU
recovering
RECEIVER
##CNTL
HSR
XREG
fig
such
s6e63m0
omap44xx
zeroes
retried
0x1000000
rf3
aic26
##PAGE0
cant
shell
##IFLAG
MEMSIZE
ftmp
AVFormat
BCM1480
strncat
ltp
exponentmantissa
xmlNodePtr
pInterface
REUSE
skba
newer
cs0
withdraw
BSD
Tor
boffset
##ILIN
SCSIID
##TxData
NTF
omap2xxx
##LMIX
resindex
##7777
TALL
psx
DVS
x01
##eus
inittab
ridx
sbmixer
macstat
relbit
cifsInode
npinfo
DBGMSG
tib
##sper
fade
SYSV
##2165
Bl
regread
rb532
salinfo
WAS
DCCPF
SIOCGIWAP
Upd
maxw
callin
core99
0x2A
##SYM
absbit
9280
tname
##DataLength
abyBBVGA
SeqNum
stapriv
hwaccel
qregs
rxopt
permanent
optimize
1g
288
GIG
##EMON
TX2
CMR
##729
##MasterTable
Ok
##heat
##1636
PRESET
AUTOGAIN
##jor
rtype
pilot
ahp
OWNED
GetIndexInto
offer
SCALER
0x0060
SPAT
baselen
SEQPACKET
0x00000200
##PERF
GetIndexIntoMasterTable
count2
##EDMA
0xa9
##SID
##a3
nets
##ctxts
LogicalDeviceInfo
2047
hardlimit
DCLK
sRx
vchan
joined
##9999
WM8915
replaced
LEASE
axon
PIDX
MT9T0
EJECT
wmap
origidx
fgIs
Hand
katom
vivid
PERC
##Ops
metronome
Oops
##lash
CRASH
es13
svr
Look
0x00000400
##PAGES
hpc3
##Times
mc417
UNT
svcrdma
##AuthType
POPULATE
##FASSERT
##cntl
HCFASSERT
##protocol
##connector
##spkr
ATARIHW
bLink
sout
listp
##GROUND
csis
yaffs2
prlo
##uns
forwarding
QLCR
##Aggreg
rc4key
Fill
ppid
ECARD
npins
##NOST
unencrypted
isb
secmark
pixman
ENDPT
CUED
NEXTHDR
93cx6
##IOF
##DataCount
pProt
usvc
POWERED
sis900
TIMES
pPhy
pus
##umble
cloop
LEDCTL
Returning
##AAAA
Dummydataref2
vcore
intsize
models
munge
usin
PCB
pipefs
pRet
##ASAS
MEGASAS
btcx
WDIOF
iniModes
MAX8925
##Increment
isku
AFI
WSM
fhdr
tlvStruct
TOC
##211
cp1
endpointAddr
efm32
WCNSS
dvd
lsR
EIR
STbuffer
lsRjt
mapper
PERCPU
SAN
wrd
##PFMem
PPSMC
##8B
cxsc
MC7
pushbuf
##53C
tsc2005
writedata
rlp
cmdreq
recmask
powers
vbp
discrete
cnew
PCTL
tle
pPeer
DUMPCORE
PRB
##ecord
dissector
##HIBIT
atafb
iscp
buffhd
wdtr
getpid
rl2
jinode
sklist
fips
sc26
pgaddr
mergeable
nameval
##Xt
state2
cfd
mt6
SetCRT2ToTV
SWRST
S50
immed
PROTECTED
EXCHANGE
##ASING
##Admitted
finddevice
Multicast
PYX
##cif
##ENCRYPT
##perties
Std
nvmd
CHAINS
##onous
getopt
teles3
eEncryption
rchan
t5
wtd
outsw
1371
MYSQL
autoload
SENDCTRL
operand1
RU
##1MIX
machines
virDomain
##FCON
Elem
Rd
cpci
ca0132
EMU32
profiling
goldfish
eit
lub
fwrite
brw
8023
a20
##3C
##Fid
FRAMING
cti
AD5
cqicb
ASSOCIATE
M2M
SD1
STOPPING
DATAB
vdma1
FET
##iary
##gmac
##svc
dise
arvif
putPaddrLow
putPaddrHigh
gpiolib
DBUS
vdp
orientation
RAL
VFT
##Types
netport
usbt
ENETUNREACH
ASRC
fregs
##SCREEN
MC5
WII
SIO0
SFE
##413
BIT3
WACOM
epause
manufact
PINCTL
RAMDAC
hup
linkspeed
ref2
hardif
flavors
ntoh24
sOpts
vexpress
##Coe
correl
statsn
nwwn
damage
emulator
sh7724
entitled
ncs
##scbs
subconnector
CYTHON
##1704
fract
pSme
thermalmeter
tlv320aic23
LCP
##login
SECTORSIZE
BROADCOM
##d8
prBssInfo
##ilen
NCDVal
##Reverse
rebind
MCHK
pExtSuppRates
pwlanhdr
GPB
pagemask
unmount
IELength
sleeper
##gart
SISP
##osh
bail0
##ISOImage
##Plan
##lvl
txing
IRQs
exynos4210
NONINTER
MTS
abySSID
SMIAPP
burn
adp8860
Processor
interpolate
##rcm
BIT6
MEMSTICK
manf
##mailbox
pfirst
vadr
rxfd
WMIFLAG
CCITT
STRENGTH
PageType
TWL6030
pendown
##KS
SetFlag
blanked
##Notification
ax8817
0x08000000
##RT2
inap
##ofree
tcdm
unlhsh
LSS
tBtamp
##Suspend
rxh
##ICIENT
RxDesc
xc4000
linearize
DNET
prin
Errors
CCISS
prxb
KSEG1ADDR
AD787
HCMD
KAL
##RSC
perfect
uartcfgs
HOP
##t2
RequestSense
pxdlist
FDM
tlist
ct2
RDB
##2150
amplify
SORT
TXH
ROMUSB
pseg
dtmp
IOSAPIC
uset
##Null
0x0033
SDHC
stomp
pTlvLen
serport
TABLES
gptimer
viper
jcomp
pdest
RESCHED
wrreg16
##GBE
##PMKID
rtl8723au
Eeprom
wu
SEPAR
##con0
svcpu
##1CR
isnot
autoconf
pDB
pmg
##lied
##NvRam
fly
dt3155
##76X
MAXPATHLEN
readv
Curl
ERESTARTNOHAND
pAddr
##URST
libusb
u128
0xA1
Completed
LPTAB
NAMELEN
SCSIT
##Us
##8psk
##ceem
PLINK
pfid
dfl
DELIM
vecp
h4
PLL2
DataCount
tms380
teles0
tms380tr
blkCnt
##encies
pmcw
##Main
txerr
WRB
##StatusMailbox
wpabuf
Fabric
bld
ar6000
0x04000000
GMS
rstate
atu
WM8983
differential
cport
TRISTATE
4294
stac92hd
sable
IWUGO
imxdi
ecclayout
CurrentChannel
KEXEC
grid
IGBVF
##oftlimit
AGE
XTS
##PINT
PLT
CPB
AURE
CTRL4
##PSL
wsptr
W2
bail1
0x3f800000
Machine
name1
leg
nextblock
ndevs
ZAPPED
mchan
ad74
ACCMODE
nvol
andor
autoidle
Fmax
plip
##ABET
##addr6
PM4
THIN1
##heck
CHRG
MT9V022
##watch
##INPUT
IS2G
wme
pDrv
##OU
revert
sifs
vorb
##9910
DEEMPH
3600
rxe
NOTIF
PyLong
TimerSQ3
HOURS
DUTY
aver
SCSISIG
##cheduler
tWDA
##contrast
Unc
clkrate
currentSCCB
ichdr
NSSM
vlandev
SAIF
##000000000000000
oq
##road
##ORS
scontrol
GG82563
##1213
TXOP
insb
dimensions
##MSS
MODE0
iocp
SDp
ulpContext
##ScanReq
xir
devptr
dirid
engines
inode2
part2
TODO
Gdk
spriv
tcpm
DMOV
##Events
dchan
subscr
XPRT
compass
INTERLEAVED
lnbp21
012
##istry
##CISION
UMP
##Para
##Unicode
Reference
VARIANT
Probing
g5
##lush
newkey
predefined
Avail
##AUS
##MV
0x140
MSCA
pSuppRates
##OVERR
##ulla
INQ
maxframe
##9234
pipetype
omp
rtsi
plgpio
DETAIL
wFrame
##west
CMASK
##OMAGIC
carve
pgraph
##TBTT
##cq
##7854
##plicant
wired
SFCORR
iwb
COMMENT
PortAddr
fsbno
atv
##ubs
addsta
##epData
##1275
grpci2
sname
##ontrol
BlockDriverState
##PWRCTL
S1D
BT878
NEOMAGIC
elfcore
Rout
AD77
write64
##INUSE
mountdata
DDS
peg
3f
M5
##llu
maskp
TRAC
carveout
fval
DISEQ
sgc
MIXED
QCA
##enance
SLIP
wrmalt
Cle
EPCTRL
SetBBReg
pPwr
Completion
dol
##2303
ibsrq
HDM
##sie
sysi
ooo
wildcard
hamachi
LEDInfo
CMI
AIR
E820
XO
p802
portcntr
##igation
DEVICEID
WAK
CSR8
MMCIF
50hz
Maj
##allies
pEepData
ADAP
rwqe
CBQ
BANK0
0x555555
txe
IMPLEMENT
##UNCH
UBH
f54
g450
unimplemented
firedtv
SHARPNESS
##oices
buf16
h2i
22050
BPC
hactive
FlashPoint
if1
##urbs
hwpoison
fwhdr
icnt
cssid
ASAP
bKey
req2
ddbs
SISPART
##bust
subtract
CLCD
pintfhdl
##199x
##864
##ctime
setgpio
RCVBUF
qca199x
PCL
toklen
entry0
problems
TOE
##counters
givencrypt
##ffect
cbw
UNPLUG
aggregate
PRESSED
xbt
extno
##241
8000000
sbl
continuing
##1355
bitmap1
rports
pBapHCIEvent
amplifygain
LMS
switcher
##SeqNum
substreams
AFECTL
CX0342
BOOTMEM
SSSR
pled
##MDSTA
ONDISK
prevent
BNX2I
##rotect
016Lx
VT32
QI
##QM
sbale
macid
VT8500
acknowledge
REGDOM
dispDevice
MTK
adv7183
rambase
tR
##202
amdtp
TBD
sparm
CONSUME
presets
Timed
gpio2
0xff0000
fibsize
INTEGRITY
HRT
setf
CPUINFO
ERST
reqd
epthru
dprintkl
bkops
Turn
ina
VCN
17158
gesture
D4
prl
lpu
DPB
##aphir
HFCB
##dc60
capturing
SCTL
##OPPY
0x7E
CANCE
updown
responses
REMOVAL
CANCELED
##Tex
breakno
initcall
dcvs
IMODE
responder
DFIFO
Fw
##Uart
nchannels
errcnt
skd
##loor
quotainfo
1e
k3
drum
snic
EXACT
lstats
stt
pmbe
##OFT
RS485
freer
CFQ
GMR
mreg
RXMODE
erom
##htt
##Bmps
physdev
generated
DMAM
connectionInfo
TRANSMITTER
easycapdc60
AUREON
##amr
##scx
UNIFI
##CommandComplete
pvid
##SWAP
i5400
msgnum
extnum
dlpar
##2CLK
rcvq
TUNING
##reloc
qname
msgitem
PLIP
ttime
HIGHDMA
dxfer
epi16
##DDC
##icit
##FRAMES
##SGE
##arly
##IGNAL
RXS
##4671
##SInst
0x007A
D64
0x900
hpios
FILES
clc
##858
SuperTrace
##u16
ipcomp
psg
##23XX
OREJ
regoff
z2ram
CIGCTRL
gp8psk
tsu
PLLCTL
quotient
W4
recip
ctxtdata
cg6
MPT3
MIPSInst
PREFERRED
nhs
qops
tunables
rcvtid
oobret
##LastError
oobretlen
infoblock
base2
##ICATOR
##die
vpsr
eraseregions
##Tracking
##p3
traps
ASSABET
iuu
TERMINATED
dft
txchain
epayload
sum16
OCM
##anchor
LCLK
jlist
prP2p
objio
erts
ro08
##template
SIRFUART
##ple
monmsg
cndx
CurrSS
vorbis
##default
virtaddr
CMND
Battery
CHP
psmode
qla8044
markers
rumble
##RITE
flite
ieee1284
eqn
##iseeq
irel
LV1
wdm
GPIO2
##1796
MYRI
PM3RD
smb349
##4f
pdt
##2002
GMF
SSCR1
DPF
laarr
waited
##SPER
sigl
##CLASS
escan
##Texture
uiSector
30000
CPP
XAX
de620
pixclk
##most
broadsheetfb
irq1
afmt
fastreg
MANDAT
1P
GBL
nim
vde
irqflag
7d
##rvl
RTP
dpath
##WPN
NTL
numeric
fulld
RMI
agnumber
m4
##MITTED
rxconf
ibsd
SGX
PURGE
vmac
sdbrcm
JC
prepend
nlevel
defrect
TimeOut
variables
SPINLOCK
LUS
thd
CLIENTS
4BIT
bbmult
lvid
EG
Element
buid
thash
pib
##ANDS
altstatus
Aux
ctrlpriv
RXMAC
mixin
##IAR
##allocate
SYSREG
is2GHz
subid
sta32x
revok
##Routine
vms
##9834
retValue
iopoll
ar9002
offset0
tda10021
##x240
PREEMPT
ilist
wst
infile
mins
TFS
wret
##bal
lpass
qt2160
lstcon
efip
bD
SIGINT
BCOM
CHKSUM
##8709
mphase
rawir
moving
V9FS
dino
others
cprb
memctl
GETJSAMPLE
nblks
NUMERIC
symbolrate
FORMATTER
INCOMPLETE
##Extra
SLI3
AVFormatContext
XAXIDMA
##CRT1
CLRINT
##512x
hugetlbfs
SPATIAL
wKey
SETPORT
##ignal
q931
0x1FF
tcpudp
LDB
dreg
st1
AD19
IMS
##boe
AIPTE
AscSetChip
AIPTEK
##AREA
ro32
IOBASE
##HS
##create
imxfb
p9pdu
dsor
ISP1301
UEVENT
kdebug
cs89
rfPath
fgets
copylen
iismod
t2timer
c15
dataflash
sce
radius
nfq
TXPID
clrbits32
CLOEXEC
ifork
trav
ALCH
pageshift
cips
acecad
bf54x
pna
WriteSync
LCD2
I2CR
pm8901
IGA1
UART2
java
retinfo
TOUT
##eral
TLL
BCM54XX
nrb
##zard
reduction
SAMPLING
##OINT
##DRAM
ideal
##law
pchild
cwd
gscr
THROTTLED
rectangle
cros
EADDRINUSE
##007
TIN
##cer
##KEN
FLIDX
##ellation
##6007
##FileName
OSDWIN
U14
sublen
BMG
launch
nht
##93c
##PowerMode
##mnt
psge
##clr
BEHOLD
##GCR
STC
AFF
tuc
##UDIO
##cards
SendCtrl
##aries
discQ
around
##connect
PCRTC
REFCLK
chcr
ptarget
MSCAN
TOSA
linkstate
fdtable
##nn
##eriod
realtime
ksnc
rotor
syscalls
lep
##2021
i386
##IndicateSeq
storm
mmx
psDevInfo
TM6000
ntfschar
##PHYS
literal
sde
stretch
numbuffers
##Completion
MacAddress
##2223
SIS5595
netfront
vmidi
tgpio
HDXE
bins
##acks
16M
mbr
THRI
BMU
TCSR
ACTIONS
##Floatx80
flowidn
glyphs
minidump
cbHeaderSize
tcindex
movi
vpx3220
MANDATORY
565
##S4
tx3927
fwtty
rpcauth
MV64XXX
##SystemRole
fcn
comres
DA7
S5M
xop
redundant
ALCHEMY
txpd
max3
POLLHUP
##odule
bfusb
uCurrent
##Bw
recoverable
bprintf
ENIC
felem
cqm
SHARPSL
##aur
recvframe
txqs
WHI
offset2
pcard
RELAXNG
GEP
nextlen
RT6
LEV
IWEV
bootrom
TCS
BQ2415X
BSM
##dentfb
rxchan
xpnet
tridentfb
vrefresh
rege
CPUs
nhoff
GEOM
AMSDU
##maps
pInterfaceStat
fileIdent
protosw
0xFB
byKeyDecMode
##oboe
cfr
toshoboe
IGA2
##2dbm
##7322
mx51
ADAPTEC
MARVEL
sa1100fb
DA732X
##Sum
TIMED
214
LDR
DIAGNOST
THRU
idprom
psk
dlp
LNKCTL
deactiv
ad93
tx1
ad9389b
CED
commac
ASCQ
##Xmit
##arrow
pldirq
block2
##ldm
sendto
itlb
0x2E
tmrHw
datalink
##ITO
REG32
DRP
SH7751
e1x
wlock
82571
##aclc
REST
IMSK
NETUP
txx9aclc
deletion
##ETAG
CONTEXT0
##mbedded
wtdma
##Wep
rcbuffer
newf
UNIPHY
TxDesc
250000
0xCE
progname
axp
BCM432
grpblk
executable
Major
untr
iostats
FRA
0x0f0
stex
dma64
##519
ibme
SIOCSIW
ibmebus
Called
ppu
##fwd
scenario
ModeFlag
nqsets
SN9C102
jas
##6E
TYPE3
DMACSR
fully
KMRNCTRL
KMRNCTRLSTA
##atest
tsd
##PsTdma
eEncryptionStatus
Rtd
CSR12
etherh
hex2mem
##CO
##3031
pbyBSSID
mipsxx
sqsh
replenish
##RSS
mt2060
sgio2
lastblock
at91sam9g
HIBERNATION
dtc
hcan
02u
SILENT
silly
RCB
##8974
asb100
ifb
##atech
Connected
maintenance
IBCCtrl
##Wh
##Gpio
##ounce
dstatus
AMD64
P02
GPIO3
Fmin
FAKE
##avg
AFC
highlight
##MsgQ
safety
ebuf
numargs
tidaw
MUST
##MAIN
dmfe
ChipCmd
vmin
##quant
evalf
Quick
scic
leo
STX
cfg3
IOPR
btc8723
gmac
cgno
##apad
##ometer
wm0
JH
ZE
sisr
##geo
##1819
hmask
tagp
ICHREG
es1968
Checking
adl
ldp
MWAVE
Ali
##Cell
sgiseeq
##exponent
TDES
##COMP
##thon
##RESTART
mcode
wpg
##3233
dumped
buf32
Minor
hfreq
##uPINT
##qs
BTE
MBITS
HCuPINT
nbank
backwards
upb
peerMacAddr
datetime
VIOLATION
gumr
lasi
bstat
CPUState
FPC
MPM
##WITCH
stash
mtpt
GENERATE
DataOffset
pc87413
filestream
ramvec
AMIXER
OUT32
ispstat
Com
jdesc
##fab
ehash
pUserData
YV
hostif
PCCR
CUDA
RPS1
UNBOUND
yas
chrom
STATUSF
##15xx
comma
ywrap
readpages
bt8xx
COEFF3
##Completed
rulla
IN6
entsize
hpdi
disco
COEFF23
COEFF01
COEFF45
COEFF67
##RrvTime
SCK
gr0
overtemp
pSend
COEFF89
COEFF36
COEFF1011
COEFF2425
COEFF1617
COEFF1415
COEFF1213
COEFF2021
COEFF2223
COEFF3031
COEFF1819
COEFF3233
0x110d0000
COEFF2627
COEFF2829
COEFF3435
##rof
##uplicate
writelen
iptable
##cfg1
vgasr
permissions
derived
dispatched
AMDGPU
03X
Forcing
##issed
COMPI
##bhid
SENSITIVE
compensation
NCT6775
##Bow
SRX
ControllerBaseAddress
outsize
PII
bank2
MFGPT
Direction
SLV
##20442
abyCurrSuppRates
ETS
pStats
adbhid
##ORED
##cod
preorder
IP4
tboot
nametbl
##Names
##w0
printdebug
asq
##ffffffff
NPY
hdlcrx
mountp
##RetryLimit
DAQP
hazard
PIIX4
TDB
##fbdev
APER
##77105
##ght
RF2G3
devmask
cpu0
##SPAR
##iliary
max8952
sdinfo
xendev
tfp410
##Round
##cipal
JERR
cs84
level2
##alend
##DCLK
runs
##d4
reg64
VMUX
quiescent
Targ
REFclass
ixdp
namelist
##Half
gnu
EOI
isicom
learning
##Storage
BACKOFF
DAQDS
##2ss
tmp11
##rbit
##MGMT
eor
##ecode
Additional
##process
##HostAdapter
DEPCA
Cal
subframes
DBDMA
##Coll
combination
##a8
fcode
##FIRE
ebp
irqsafe
mmcra
LIFETIME
W996
##ifiers
intsrc
tc3587
nonblocking
tssi2dbm
##LICE
initvals
msm7x
broot
##Cpy
##smp
audmux
mounts
##WT
NULLAG
##allink
ofst
##loss
IFNAME
##urpriseRemoved
Imm
pObj
pcifn
WDR
DISEQC
rxhash
TxRx
iqlo
hwreg
##2030
nlim
outputVal
FTDI
geode
##procmask
rka
YCBCR
HAM
0x2B
rsvp
RBC
LM35
P01
curn
ili9320
aob
bop
##XCTL
crsr
mlx5e
Previous
chase
FBUF
mtx1
xfi
CPUM
shortgi
ramsize
ICEMT
0xd6
EL3WINDOW
dmadesc
0xea
hitfb
SwLed
Payload
shndx
pmask
##DMIN
gf100
tctl
x8
pmr
POLY
PageNumber
TIMEDOUT
ULong
ees
##nit
##NFG
openp
sigprocmask
anchored
jazz
chl
CTIME
BARK
raised
b8
##2102
dee
modex
dm355evm
##astat
mppriv
3LE
chrp
ExtPage
ENCRYPTED
lmac
nearest
pc87427
tmpbyte
STEDMA
r8a7779
CS5530
STEDMA40
HPP
resist
pis
0xc00
STEPS
r20
uCode
ddq
authType
ov7660
##OVERRIDE
BRI
dying
ois
##kit
quickstart
R20
##1x93
avmctrl
##IpAddress
ar933x
ves1x93
LIT64
OCR
##fas
intno
##ReadWrite
HYS
Exiting
NG
##balloon
##U0
##amily
DDI
say
0x000008
tproto
DMC
sstat
##cpb
epson
cfgGet
wipe
txpkt
pVar
grcan
r16
init32
##ldma
JZ4740
SRC3
maxval
osdev
syscfg
##RSR
pfmt
DIRECTED
pFir
HUP
fmt7
rii
ds2760
vset
##InSlave
partic
sis630
JEDEC
##ROT
sc6000
vscsi
##values
Graph
sels
BLS
DS1305
Cr
##server
siena
ibpd
GPP
vifi
CAI
nommu
ov9650
rho
balloon3
nreg
##Finish
csel
skblen
transient
SHOT
smartq
aifsn
##acru
cxacru
EVO
rt5631
bse
u0
##085
NEVER
malformed
dmamode
signaling
##Allowed
pktsize
NOSPACE
fsldma
TARGETS
##Unix
urgent
##linesize
CDSP
SFifo
rs5c372
quatech
##ofi
##THI
##ellow
##ENCIL
##Timers
strs
gpte
flchip
##andby
byte2
thru
IORE
ttp
CSR7
libs
##ilp
STATEID
ik
click
DADDR
##ONET
dmactl
##117
grad
FBI
HWMON
AUDREC
9300
##bone
##eef
r2nm
Vm
dor
pBAEntry
fentry
vprog
MT9T
ODEBUG
Syn
nofail
QVGA
dBm
sstate
saphir
##SIL
csrs
NJ
NTC
##urg
msm86
##ISTAT
RTH
qas
iff
inits
pino
winbond
l1m
tpa6130
physpages
WHILE
ICEMT1724
##Ns
usn
pcon
##1700
RFSYN
ny
##Dot11
DECIM
tj9
00000
Root
SLE
udest
rm200
##VBUS
P8
##CIPHER
ioh
memchr
s3cfb
FBIO
##CmdQueue
LXP
aarch
bytein
FEED
SVGA3dCmd
intsts
0x4C
PRLI
GDR
##req64
123
equals
BGMAC
DisasContext
dc21285
PASSWORD
rocketModel
MSEL1CR
qec
DISTANCE
rpage
OPTS
svid
FSTYPE
pUrb
next32
qa
ENERGY
tpa6130a2
bh1
cb0
uart401
4020
FIELDS
HCregaddr
U3
retarray
psl
pathlen
shdlc
PRINTM
BANK1
DA7213
RESIZ
rev3
##CHANNELS
[...]
